<pad>	0
<s>	0
</s>	0
<unk>	0
<emo_afraid>	0
<emo_angry>	0
<emo_annoyed>	0
<emo_anticipating>	0
<emo_anxious>	0
<emo_apprehensive>	0
<emo_ashamed>	0
<emo_caring>	0
<emo_confident>	0
<emo_content>	0
<emo_devastated>	0
<emo_disappointed>	0
<emo_disgusted>	0
<emo_embarrassed>	0
<emo_excited>	0
<emo_faithful>	0
<emo_furious>	0
<emo_grateful>	0
<emo_guilty>	0
<emo_hopeful>	0
<emo_impressed>	0
<emo_jealous>	0
<emo_joyful>	0
<emo_lonely>	0
<emo_nan>	0
<emo_nostalgic>	0
<emo_prepared>	0
<emo_proud>	0
<emo_sad>	0
<emo_sentimental>	0
<emo_surprised>	0
<emo_terrified>	0
<emo_trusting>	0
<sep>	0
▁t	-0
▁i	-1
▁a	-2
▁w	-3
he	-4
▁s	-5
▁m	-6
en	-7
ha	-8
in	-9
ou	-10
re	-11
▁b	-12
▁f	-13
▁to	-14
▁o	-15
▁the	-16
ing	-17
▁d	-18
▁g	-19
er	-20
▁c	-21
ent	-22
nd	-23
or	-24
as	-25
▁l	-26
▁y	-27
▁my	-28
ed	-29
ll	-30
▁it	-31
▁n	-32
▁ha	-33
on	-34
▁p	-35
gent	-36
▁A	-37
▁Agent	-38
hat	-39
▁and	-40
es	-41
▁was	-42
ar	-43
▁you	-44
▁h	-45
it	-46
▁that	-47
▁so	-48
ve	-49
me	-50
ay	-51
▁be	-52
ot	-53
an	-54
at	-55
st	-56
▁in	-57
ow	-58
▁he	-59
▁of	-60
id	-61
▁re	-62
▁th	-63
ri	-64
et	-65
▁for	-66
▁we	-67
▁e	-68
oo	-69
gh	-70
▁on	-71
le	-72
is	-73
▁me	-74
▁is	-75
ver	-76
ld	-77
out	-78
ad	-79
▁do	-80
ke	-81
all	-82
▁u	-83
el	-84
▁have	-85
ut	-86
▁st	-87
▁j	-88
▁ne	-89
ic	-90
end	-91
ro	-92
▁am	-93
ch	-94
▁k	-95
ght	-96
▁li	-97
ally	-98
ust	-99
al	-100
▁whe	-101
se	-102
▁did	-103
▁go	-104
▁an	-105
ith	-106
pp	-107
ly	-108
▁at	-109
▁with	-110
ac	-111
▁but	-112
▁some	-113
▁when	-114
▁su	-115
ir	-116
▁get	-117
▁wor	-118
ould	-119
ood	-120
her	-121
▁ab	-122
one	-123
op	-124
ter	-125
th	-126
▁not	-127
ill	-128
▁they	-129
▁ye	-130
▁fe	-131
▁just	-132
very	-133
▁had	-134
▁out	-135
▁can	-136
im	-137
riend	-138
▁really	-139
▁what	-140
▁she	-141
▁co	-142
▁are	-143
▁mo	-144
ion	-145
▁up	-146
▁al	-147
king	-148
▁good	-149
▁ti	-150
▁about	-151
▁lo	-152
▁se	-153
ra	-154
▁got	-155
▁like	-156
ast	-157
▁all	-158
▁wh	-159
▁feel	-160
▁time	-161
▁friend	-162
ant	-163
ce	-164
▁her	-165
▁this	-166
ry	-167
▁kn	-168
art	-169
▁ex	-170
▁work	-171
▁day	-172
am	-173
▁happ	-174
au	-175
ound	-176
▁no	-177
day	-178
un	-179
..	-180
▁too	-181
▁been	-182
▁sh	-183
▁going	-184
▁as	-185
ake	-186
ek	-187
way	-188
▁week	-189
▁oh	-190
est	-191
sed	-192
ur	-193
ct	-194
ind	-195
▁know	-196
▁r	-197
▁will	-198
rom	-199
▁one	-200
ck	-201
ack	-202
red	-203
▁sa	-204
▁how	-205
ome	-206
ul	-207
▁very	-208
mp	-209
▁new	-210
▁year	-211
ough	-212
fe	-213
▁him	-214
ight	-215
▁thin	-216
thing	-217
▁pl	-218
▁hop	-219
▁your	-220
▁yes	-221
han	-222
▁them	-223
▁don	-224
▁would	-225
▁there	-226
▁le	-227
▁well	-228
▁see	-229
ge	-230
ice	-231
ool	-232
▁pre	-233
reat	-234
▁now	-235
▁any	-236
ong	-237
▁from	-238
▁de	-239
▁hope	-240
ie	-241
▁think	-242
▁car	-243
▁last	-244
▁every	-245
ation	-246
il	-247
▁were	-248
▁want	-249
▁sc	-250
ving	-251
▁back	-252
▁yea	-253
ate	-254
ore	-255
▁great	-256
us	-257
ble	-258
▁sp	-259
rd	-260
ous	-261
▁jo	-262
▁didn	-263
▁pe	-264
ess	-265
other	-266
and	-267
ther	-268
ting	-269
▁af	-270
our	-271
ven	-272
▁bad	-273
▁than	-274
▁other	-275
▁went	-276
▁could	-277
▁mad	-278
▁thing	-279
▁happy	-280
▁sure	-281
▁lot	-282
ers	-283
▁job	-284
▁ag	-285
▁kid	-286
ak	-287
▁old	-288
▁bet	-289
ard	-290
▁mu	-291
ways	-292
▁home	-293
▁dog	-294
▁always	-295
▁v	-296
▁bec	-297
▁peop	-298
ought	-299
▁tr	-300
▁people	-301
▁over	-302
▁ca	-303
▁much	-304
▁te	-305
▁sch	-306
▁loo	-307
▁his	-308
▁wa	-309
▁ch	-310
ty	-311
ss	-312
ful	-313
▁hard	-314
▁or	-315
▁aw	-316
ep	-317
▁yeah	-318
ause	-319
▁if	-320
▁school	-321
▁today	-322
▁off	-323
▁nice	-324
▁man	-325
elt	-326
▁wait	-327
ig	-328
▁felt	-329
ive	-330
▁un	-331
▁cl	-332
▁fir	-333
▁con	-334
ain	-335
▁never	-336
▁br	-337
▁first	-338
▁int	-339
ily	-340
oy	-341
▁because	-342
ick	-343
▁gu	-344
elf	-345
▁has	-346
ort	-347
▁ri	-348
▁happen	-349
ved	-350
▁di	-351
ies	-352
▁gr	-353
ine	-354
▁make	-355
▁someone	-356
▁friends	-357
▁who	-358
▁love	-359
qu	-360
mb	-361
pe	-362
▁years	-363
▁after	-364
irl	-365
▁night	-366
▁en	-367
▁start	-368
▁by	-369
ouse	-370
ide	-371
itt	-372
▁girl	-373
self	-374
▁fam	-375
▁ar	-376
▁pro	-377
own	-378
ment	-379
ely	-380
▁stu	-381
▁long	-382
▁sound	-383
ite	-384
▁even	-385
▁try	-386
▁more	-387
▁house	-388
▁need	-389
ked	-390
▁pret	-391
ady	-392
▁right	-393
▁family	-394
ff	-395
▁po	-396
▁bu	-397
▁life	-398
igh	-399
▁should	-400
lp	-401
▁wat	-402
ish	-403
imes	-404
▁still	-405
▁help	-406
▁made	-407
ared	-408
▁pretty	-409
▁way	-410
ass	-411
▁fun	-412
ag	-413
ist	-414
▁tri	-415
▁rec	-416
ace	-417
▁kids	-418
▁litt	-419
▁little	-420
ft	-421
▁thank	-422
▁sor	-423
▁part	-424
▁sorry	-425
▁fin	-426
▁hear	-427
xt	-428
▁ke	-429
▁something	-430
▁fa	-431
ile	-432
▁best	-433
▁par	-434
▁into	-435
nder	-436
▁take	-437
per	-438
▁things	-439
ning	-440
ose	-441
aught	-442
▁kind	-443
▁away	-444
▁its	-445
▁though	-446
▁com	-447
ab	-448
▁why	-449
▁comp	-450
▁next	-451
▁wow	-452
▁getting	-453
ci	-454
▁qu	-455
▁sounds	-456
friend	-457
▁our	-458
▁better	-459
▁thr	-460
▁mon	-461
oney	-462
▁play	-463
▁does	-464
▁che	-465
▁exc	-466
▁found	-467
▁money	-468
▁1	-469
uck	-470
▁saw	-471
mor	-472
...	-473
▁then	-474
nt	-475
▁mis	-476
▁us	-477
▁down	-478
▁ga	-479
▁weekend	-480
▁im	-481
hed	-482
ently	-483
ull	-484
▁feeling	-485
▁month	-486
ild	-487
▁excit	-488
fore	-489
▁before	-490
▁ac	-491
ol	-492
aking	-493
▁being	-494
akes	-495
om	-496
iz	-497
▁may	-498
▁find	-499
▁days	-500
▁must	-501
ated	-502
ure	-503
▁app	-504
▁big	-505
be	-506
▁pr	-507
te	-508
ating	-509
▁myself	-510
wn	-511
▁while	-512
ree	-513
vie	-514
▁2	-515
terday	-516
▁yesterday	-517
▁took	-518
erv	-519
urn	-520
esome	-521
ue	-522
▁able	-523
rand	-524
▁end	-525
▁son	-526
▁scared	-527
▁pay	-528
ach	-529
▁daught	-530
▁wi	-531
lie	-532
▁recently	-533
▁awesome	-534
▁brother	-535
▁dri	-536
▁their	-537
▁thought	-538
▁sad	-539
▁ro	-540
▁ready	-541
▁keep	-542
▁tal	-543
▁dis	-544
▁around	-545
ents	-546
ually	-547
▁through	-548
▁won	-549
▁looking	-550
▁fr	-551
▁cou	-552
▁miss	-553
▁only	-554
▁cat	-555
▁everything	-556
▁bo	-557
▁wife	-558
▁wanted	-559
row	-560
mm	-561
▁child	-562
▁wal	-563
▁where	-564
ity	-565
▁gl	-566
▁watch	-567
▁sho	-568
▁sur	-569
▁somet	-570
pect	-571
▁lol	-572
ary	-573
pt	-574
▁care	-575
▁belie	-576
mber	-577
▁sw	-578
▁daughter	-579
▁thats	-580
▁few	-581
▁doing	-582
▁let	-583
▁ter	-584
▁put	-585
▁having	-586
rible	-587
▁bl	-588
▁bir	-589
▁anything	-590
▁fl	-591
▁ago	-592
de	-593
▁ok	-594
ward	-595
▁maybe	-596
▁sin	-597
▁under	-598
ried	-599
ms	-600
ip	-601
▁came	-602
▁sometimes	-603
▁plan	-604
▁left	-605
▁girlfriend	-606
▁luck	-607
▁nerv	-608
▁wish	-609
act	-610
▁again	-611
▁act	-612
ied	-613
▁ra	-614
mo	-615
▁believe	-616
▁call	-617
▁since	-618
▁guy	-619
▁happened	-620
▁ph	-621
ious	-622
bor	-623
ng	-624
▁imp	-625
▁excited	-626
os	-627
lle	-628
▁used	-629
▁rel	-630
az	-631
▁come	-632
▁makes	-633
▁lost	-634
▁say	-635
assed	-636
▁tw	-637
▁birth	-638
▁food	-639
▁mom	-640
▁neigh	-641
cer	-642
pri	-643
vor	-644
!!	-645
▁show	-646
get	-647
age	-648
▁hus	-649
▁test	-650
▁hate	-651
▁colle	-652
▁such	-653
▁many	-654
▁pers	-655
▁ad	-656
▁neighbor	-657
▁tell	-658
▁told	-659
pped	-660
▁glad	-661
▁nervous	-662
band	-663
▁ups	-664
▁tra	-665
ations	-666
dy	-667
▁once	-668
▁birthday	-669
▁husband	-670
▁3	-671
▁done	-672
▁grad	-673
▁alone	-674
▁person	-675
cid	-676
▁reme	-677
▁those	-678
▁same	-679
oud	-680
▁bro	-681
ork	-682
ress	-683
▁bought	-684
▁upset	-685
▁ever	-686
▁cool	-687
▁inter	-688
▁res	-689
▁spe	-690
able	-691
▁chan	-692
▁trying	-693
oom	-694
▁grand	-695
▁amaz	-696
ner	-697
▁look	-698
▁tomor	-699
▁cle	-700
▁favor	-701
▁gi	-702
▁tomorrow	-703
▁supp	-704
▁wasn	-705
int	-706
▁place	-707
▁college	-708
00	-709
▁fo	-710
▁coming	-711
hing	-712
▁bit	-713
▁vac	-714
▁surpri	-715
▁bab	-716
▁high	-717
ves	-718
▁here	-719
▁another	-720
▁live	-721
▁remember	-722
ance	-723
▁real	-724
▁soon	-725
▁stay	-726
▁trip	-727
▁said	-728
▁turn	-729
▁game	-730
▁class	-731
▁parents	-732
ew	-733
ence	-734
cked	-735
ully	-736
▁super	-737
▁boy	-738
▁mar	-739
ise	-740
▁sm	-741
▁sist	-742
▁lea	-743
▁party	-744
▁finally	-745
▁everyone	-746
▁sit	-747
▁favorite	-748
ather	-749
▁two	-750
res	-751
▁wo	-752
side	-753
▁guess	-754
▁prom	-755
▁working	-756
▁expect	-757
▁fi	-758
▁most	-759
ook	-760
▁passed	-761
▁amazing	-762
▁wr	-763
▁knew	-764
fully	-765
most	-766
▁buy	-767
rat	-768
▁store	-769
so	-770
▁underst	-771
▁gro	-772
ult	-773
▁dr	-774
▁almost	-775
▁times	-776
▁dad	-777
▁win	-778
orm	-779
▁started	-780
pen	-781
▁vacation	-782
▁hu	-783
ason	-784
view	-785
▁scary	-786
▁terrible	-787
▁clean	-788
▁:	-789
▁eat	-790
▁hur	-791
▁cont	-792
ath	-793
▁baby	-794
▁own	-795
▁ear	-796
co	-797
▁understand	-798
▁months	-799
▁rest	-800
▁bus	-801
ash	-802
joy	-803
▁hit	-804
▁enjoy	-805
▁lat	-806
▁cr	-807
▁young	-808
▁meet	-809
▁cra	-810
▁mean	-811
ase	-812
mmer	-813
▁str	-814
▁mor	-815
▁proud	-816
leep	-817
▁trust	-818
▁sister	-819
▁least	-820
▁sto	-821
▁pu	-822
▁haha	-823
▁taking	-824
ten	-825
▁weeks	-826
▁bre	-827
ger	-828
med	-829
▁swe	-830
ont	-831
▁interview	-832
▁morning	-833
▁ann	-834
▁waiting	-835
▁nothing	-836
▁give	-837
▁gave	-838
▁actually	-839
▁prep	-840
▁att	-841
▁diff	-842
▁haven	-843
▁without	-844
▁forward	-845
▁hor	-846
gether	-847
▁5	-848
▁tried	-849
▁couldn	-850
▁together	-851
▁also	-852
▁la	-853
▁vis	-854
hip	-855
ple	-856
▁pa	-857
▁per	-858
▁run	-859
▁quite	-860
▁stuff	-861
▁sha	-862
▁sick	-863
sit	-864
ned	-865
▁cha	-866
cial	-867
▁conf	-868
are	-869
▁might	-870
▁enough	-871
▁died	-872
ail	-873
▁visit	-874
▁memor	-875
▁ide	-876
▁ord	-877
ball	-878
▁thanks	-879
▁,	-880
▁okay	-881
pl	-882
cks	-883
▁el	-884
ug	-885
otion	-886
ich	-887
▁moved	-888
til	-889
▁movie	-890
▁ate	-891
▁def	-892
▁sleep	-893
▁broke	-894
▁4	-895
▁move	-896
▁yet	-897
ord	-898
▁summer	-899
▁heard	-900
unch	-901
vers	-902
▁cow	-903
▁idea	-904
oth	-905
ered	-906
▁cong	-907
▁until	-908
▁forg	-909
▁hour	-910
▁sl	-911
▁cut	-912
▁thinking	-913
hood	-914
ream	-915
ect	-916
ump	-917
▁past	-918
▁compan	-919
▁leave	-920
▁exam	-921
ched	-922
osed	-923
ier	-924
▁whole	-925
▁grandm	-926
▁congrat	-927
▁hopefully	-928
▁sk	-929
▁worried	-930
▁talk	-931
▁gradu	-932
▁watching	-933
▁wonder	-934
▁front	-935
▁doesn	-936
ably	-937
▁stud	-938
hes	-939
fort	-940
▁din	-941
▁late	-942
▁close	-943
▁compl	-944
gry	-945
▁else	-946
▁$	-947
▁sn	-948
▁wrong	-949
▁ap	-950
▁lear	-951
▁mine	-952
▁ho	-953
▁world	-954
▁these	-955
ax	-956
▁afra	-957
▁ended	-958
▁dont	-959
▁defin	-960
▁afraid	-961
▁forgot	-962
▁ton	-963
▁walking	-964
▁prob	-965
▁sweet	-966
▁des	-967
▁ret	-968
▁cowork	-969
▁far	-970
▁probably	-971
▁outside	-972
▁door	-973
▁boyfriend	-974
▁bor	-975
▁worked	-976
▁company	-977
▁seen	-978
▁phone	-979
▁which	-980
▁definit	-981
▁eas	-982
▁anyone	-983
▁date	-984
▁heal	-985
▁cant	-986
izz	-987
▁hurt	-988
▁memories	-989
ted	-990
▁pet	-991
▁alre	-992
▁room	-993
▁couple	-994
▁already	-995
▁ran	-996
▁pizz	-997
▁dinner	-998
▁true	-999
▁needed	-1000
▁deal	-1001
▁definitely	-1002
▁shocked	-1003
eal	-1004
▁tick	-1005
zy	-1006
▁pass	-1007
na	-1008
ctor	-1009
▁accid	-1010
▁annoy	-1011
▁making	-1012
ions	-1013
▁didnt	-1014
▁team	-1015
▁playing	-1016
gn	-1017
▁mother	-1018
▁inv	-1019
▁pizza	-1020
▁asked	-1021
▁ent	-1022
ink	-1023
▁posit	-1024
▁head	-1025
▁prepared	-1026
ience	-1027
ire	-1028
▁emb	-1029
▁open	-1030
▁drive	-1031
▁use	-1032
▁town	-1033
▁break	-1034
▁realiz	-1035
rew	-1036
▁"	-1037
ap	-1038
▁driving	-1039
▁foot	-1040
▁seems	-1041
▁inst	-1042
▁hand	-1043
▁-	-1044
▁import	-1045
▁pic	-1046
▁pres	-1047
▁exper	-1048
▁crazy	-1049
▁embar	-1050
▁spend	-1051
▁accident	-1052
cially	-1053
pping	-1054
▁important	-1055
▁min	-1056
▁rem	-1057
up	-1058
▁both	-1059
als	-1060
uring	-1061
▁decid	-1062
▁ticket	-1063
fied	-1064
ars	-1065
whe	-1066
rest	-1067
▁lucky	-1068
▁confid	-1069
▁promotion	-1070
rant	-1071
▁seeing	-1072
▁ins	-1073
▁mat	-1074
▁boss	-1075
▁happens	-1076
▁talking	-1077
sing	-1078
▁pick	-1079
▁gift	-1080
▁study	-1081
▁decided	-1082
▁ext	-1083
▁hon	-1084
▁doctor	-1085
ling	-1086
ressed	-1087
▁surprised	-1088
▁dogs	-1089
▁gets	-1090
▁dro	-1091
▁called	-1092
▁es	-1093
▁angry	-1094
▁restau	-1095
ged	-1096
▁restaurant	-1097
▁bring	-1098
mpl	-1099
ever	-1100
▁dec	-1101
▁reason	-1102
▁gone	-1103
▁yourself	-1104
▁situ	-1105
▁usually	-1106
ame	-1107
ject	-1108
▁heart	-1109
▁sucks	-1110
▁met	-1111
▁apart	-1112
um	-1113
▁tot	-1114
▁bed	-1115
▁during	-1116
▁exciting	-1117
▁health	-1118
▁horrible	-1119
▁brought	-1120
▁each	-1121
ren	-1122
▁gam	-1123
▁ev	-1124
▁10	-1125
▁gon	-1126
▁stop	-1127
▁card	-1128
▁change	-1129
▁fix	-1130
▁road	-1131
owing	-1132
▁count	-1133
▁imag	-1134
▁fine	-1135
▁differ	-1136
ys	-1137
ank	-1138
▁gonna	-1139
les	-1140
▁relax	-1141
▁fast	-1142
▁agree	-1143
▁ser	-1144
▁hours	-1145
▁thankful	-1146
▁tonight	-1147
▁inte	-1148
▁embarr	-1149
▁proble	-1150
▁married	-1151
illed	-1152
▁gross	-1153
▁surprise	-1154
ans	-1155
ia	-1156
▁hoping	-1157
▁guys	-1158
ird	-1159
▁cour	-1160
▁looked	-1161
▁wouldn	-1162
ount	-1163
▁free	-1164
▁tough	-1165
pecially	-1166
▁loved	-1167
▁ru	-1168
bo	-1169
bb	-1170
▁cam	-1171
▁em	-1172
▁pol	-1173
▁eating	-1174
ces	-1175
more	-1176
oop	-1177
▁sat	-1178
ons	-1179
▁worst	-1180
▁wonderful	-1181
▁fell	-1182
▁news	-1183
lled	-1184
▁awful	-1185
▁interest	-1186
▁lon	-1187
▁anymore	-1188
ither	-1189
▁meeting	-1190
iet	-1191
▁ask	-1192
cess	-1193
▁fall	-1194
▁situation	-1195
▁del	-1196
iness	-1197
▁mind	-1198
▁park	-1199
▁water	-1200
ert	-1201
▁expecting	-1202
▁especially	-1203
▁face	-1204
ined	-1205
▁appre	-1206
ately	-1207
▁relations	-1208
▁:)	-1209
▁paid	-1210
▁manag	-1211
▁minut	-1212
▁moment	-1213
▁bill	-1214
▁pain	-1215
▁relationship	-1216
▁rep	-1217
▁imagine	-1218
dd	-1219
▁supposed	-1220
less	-1221
▁stole	-1222
▁starting	-1223
▁experience	-1224
cept	-1225
where	-1226
ppy	-1227
▁football	-1228
aster	-1229
▁lately	-1230
app	-1231
ken	-1232
▁city	-1233
▁isn	-1234
▁anim	-1235
ining	-1236
▁huge	-1237
fect	-1238
▁rid	-1239
▁children	-1240
ible	-1241
▁terri	-1242
room	-1243
▁cho	-1244
▁congratul	-1245
▁later	-1246
▁turned	-1247
▁coworker	-1248
▁anx	-1249
▁inc	-1250
▁living	-1251
▁confident	-1252
▁bar	-1253
▁childhood	-1254
nday	-1255
rist	-1256
iday	-1257
▁goes	-1258
▁beach	-1259
▁grandmother	-1260
▁concer	-1261
▁complet	-1262
oint	-1263
ture	-1264
og	-1265
▁exact	-1266
▁ve	-1267
▁dep	-1268
▁kept	-1269
▁watched	-1270
ang	-1271
▁totally	-1272
▁different	-1273
ished	-1274
▁moving	-1275
▁tv	-1276
▁apartment	-1277
vious	-1278
▁near	-1279
▁pack	-1280
▁ir	-1281
ness	-1282
▁annoying	-1283
▁check	-1284
mas	-1285
▁worth	-1286
▁season	-1287
che	-1288
▁games	-1289
▁6	-1290
▁appl	-1291
▁char	-1292
fortun	-1293
▁picture	-1294
▁final	-1295
▁side	-1296
▁pregn	-1297
▁20	-1298
▁poop	-1299
▁walk	-1300
▁unfortun	-1301
▁sing	-1302
▁either	-1303
▁mus	-1304
ition	-1305
▁full	-1306
▁congratulations	-1307
▁pri	-1308
right	-1309
▁caught	-1310
▁hot	-1311
▁pull	-1312
▁feels	-1313
▁often	-1314
▁remind	-1315
vies	-1316
▁sent	-1317
work	-1318
▁ind	-1319
▁cake	-1320
ib	-1321
ret	-1322
sive	-1323
▁vide	-1324
▁father	-1325
lf	-1326
ouble	-1327
▁read	-1328
▁grocer	-1329
▁movies	-1330
▁return	-1331
ower	-1332
unk	-1333
▁cur	-1334
▁less	-1335
▁list	-1336
▁studied	-1337
▁result	-1338
▁walked	-1339
▁fail	-1340
ited	-1341
▁spent	-1342
cy	-1343
▁fore	-1344
▁ordered	-1345
su	-1346
vel	-1347
▁aff	-1348
▁roll	-1349
▁ste	-1350
▁rece	-1351
▁early	-1352
▁christ	-1353
ne	-1354
▁weird	-1355
▁med	-1356
▁sem	-1357
▁lonely	-1358
▁ce	-1359
▁ty	-1360
▁fut	-1361
▁future	-1362
▁appreci	-1363
▁special	-1364
ny	-1365
▁wind	-1366
▁exactly	-1367
ark	-1368
erg	-1369
tery	-1370
▁set	-1371
▁jeal	-1372
▁jealous	-1373
▁neighbors	-1374
▁disapp	-1375
sh	-1376
▁cook	-1377
▁small	-1378
▁light	-1379
▁point	-1380
ane	-1381
line	-1382
reet	-1383
ying	-1384
ester	-1385
▁hang	-1386
▁word	-1387
ead	-1388
ider	-1389
ding	-1390
ical	-1391
▁beh	-1392
▁mid	-1393
▁honest	-1394
▁order	-1395
▁mess	-1396
▁faith	-1397
ime	-1398
▁instead	-1399
▁present	-1400
br	-1401
if	-1402
erve	-1403
ustr	-1404
▁law	-1405
man	-1406
▁god	-1407
▁comm	-1408
▁raise	-1409
air	-1410
ense	-1411
ross	-1412
▁sec	-1413
▁fight	-1414
iv	-1415
▁phot	-1416
▁seem	-1417
▁truck	-1418
▁worry	-1419
▁christmas	-1420
▁younger	-1421
not	-1422
▁lau	-1423
▁expen	-1424
▁stress	-1425
▁lose	-1426
we	-1427
▁entire	-1428
hew	-1429
▁ref	-1430
▁dream	-1431
▁lunch	-1432
▁easy	-1433
ced	-1434
▁plans	-1435
▁afford	-1436
▁partner	-1437
▁running	-1438
▁cert	-1439
▁diffic	-1440
▁ah	-1441
ants	-1442
▁adv	-1443
▁business	-1444
▁8	-1445
▁yard	-1446
▁weight	-1447
cond	-1448
▁quick	-1449
▁dra	-1450
▁comes	-1451
▁threw	-1452
▁behind	-1453
▁roo	-1454
▁busy	-1455
▁bunch	-1456
▁semester	-1457
▁three	-1458
▁helped	-1459
▁sme	-1460
ivers	-1461
▁asha	-1462
▁fly	-1463
▁ple	-1464
▁country	-1465
▁shopping	-1466
led	-1467
▁stand	-1468
▁project	-1469
▁loc	-1470
▁second	-1471
▁difficult	-1472
▁doll	-1473
▁frustr	-1474
▁paying	-1475
▁street	-1476
▁lottery	-1477
kes	-1478
▁une	-1479
▁book	-1480
▁puppy	-1481
▁ashamed	-1482
▁nep	-1483
▁pregnant	-1484
ush	-1485
▁stor	-1486
▁worse	-1487
▁state	-1488
▁nephew	-1489
▁online	-1490
form	-1491
▁couldnt	-1492
llow	-1493
▁extra	-1494
ign	-1495
▁wed	-1496
▁math	-1497
▁course	-1498
▁dist	-1499
▁fre	-1500
▁jump	-1501
▁rain	-1502
▁wall	-1503
▁cal	-1504
▁coo	-1505
▁wom	-1506
▁ride	-1507
▁window	-1508
▁pur	-1509
▁reg	-1510
aring	-1511
▁grade	-1512
▁gotten	-1513
▁mail	-1514
gg	-1515
ffe	-1516
▁self	-1517
▁trouble	-1518
ud	-1519
▁?	-1520
wards	-1521
ffic	-1522
lling	-1523
▁mist	-1524
▁storm	-1525
▁disg	-1526
▁luckily	-1527
em	-1528
▁video	-1529
▁hi	-1530
ital	-1531
▁music	-1532
▁works	-1533
▁older	-1534
▁camp	-1535
ention	-1536
▁cannot	-1537
▁land	-1538
▁police	-1539
▁concert	-1540
oup	-1541
▁bas	-1542
▁half	-1543
▁girls	-1544
▁applied	-1545
▁mil	-1546
▁(	-1547
▁box	-1548
▁others	-1549
▁positive	-1550
▁minutes	-1551
▁ones	-1552
▁realized	-1553
▁graduated	-1554
ma	-1555
▁event	-1556
▁inside	-1557
iece	-1558
▁eng	-1559
▁pants	-1560
▁studying	-1561
ised	-1562
▁dent	-1563
▁base	-1564
▁serious	-1565
ian	-1566
▁aww	-1567
▁cor	-1568
▁poss	-1569
▁smart	-1570
▁problem	-1571
▁planning	-1572
▁expensive	-1573
▁drink	-1574
▁hair	-1575
▁finan	-1576
▁stran	-1577
▁treat	-1578
irt	-1579
ived	-1580
▁gen	-1581
▁keeps	-1582
aut	-1583
▁clot	-1584
▁takes	-1585
▁support	-1586
ates	-1587
▁planned	-1588
ney	-1589
▁sim	-1590
▁coffe	-1591
▁forever	-1592
▁kit	-1593
mploy	-1594
▁played	-1595
▁area	-1596
▁accept	-1597
▁results	-1598
▁fig	-1599
▁cute	-1600
▁coffee	-1601
ors	-1602
▁disgust	-1603
▁manager	-1604
rit	-1605
▁clos	-1606
▁hos	-1607
ction	-1608
▁lots	-1609
▁sitting	-1610
▁ey	-1611
▁cous	-1612
▁guil	-1613
▁cousin	-1614
▁interesting	-1615
▁hosp	-1616
!!!	-1617
▁hun	-1618
▁born	-1619
▁dark	-1620
▁hold	-1621
▁traffic	-1622
ugg	-1623
▁bath	-1624
ically	-1625
▁certain	-1626
▁pictures	-1627
▁completely	-1628
▁anxious	-1629
▁war	-1630
▁cheated	-1631
▁accidentally	-1632
io	-1633
▁pract	-1634
body	-1635
▁envious	-1636
▁wedding	-1637
ric	-1638
iced	-1639
▁dead	-1640
▁step	-1641
▁single	-1642
ming	-1643
▁looks	-1644
▁matter	-1645
ix	-1646
cel	-1647
▁beaut	-1648
▁earl	-1649
▁neighborhood	-1650
▁9	-1651
▁cry	-1652
▁chance	-1653
▁listen	-1654
▁abs	-1655
▁type	-1656
▁air	-1657
acher	-1658
▁fair	-1659
▁congrats	-1660
but	-1661
▁fan	-1662
redit	-1663
▁appro	-1664
▁learn	-1665
▁turns	-1666
▁earlier	-1667
▁red	-1668
▁local	-1669
ho	-1670
....	-1671
▁name	-1672
▁funny	-1673
▁position	-1674
▁embarrassed	-1675
▁lied	-1676
▁loud	-1677
▁quiet	-1678
▁dropped	-1679
▁grocery	-1680
▁leaving	-1681
▁weather	-1682
ps	-1683
urance	-1684
▁catch	-1685
▁office	-1686
dle	-1687
▁resp	-1688
▁grandma	-1689
ym	-1690
cle	-1691
▁du	-1692
▁short	-1693
uri	-1694
▁cost	-1695
▁swim	-1696
▁credit	-1697
ics	-1698
▁:(	-1699
olut	-1700
▁teacher	-1701
aken	-1702
▁dev	-1703
▁across	-1704
▁unfortunately	-1705
lt	-1706
▁sub	-1707
▁beauti	-1708
pected	-1709
▁forget	-1710
▁ma	-1711
▁cancer	-1712
▁age	-1713
▁tur	-1714
▁cand	-1715
▁safe	-1716
▁perfect	-1717
▁everyday	-1718
acking	-1719
▁clothes	-1720
▁case	-1721
ateful	-1722
▁tickets	-1723
▁15	-1724
▁compet	-1725
▁sy	-1726
▁ele	-1727
essed	-1728
▁woke	-1729
▁comput	-1730
▁impressed	-1731
ee	-1732
▁bag	-1733
▁cru	-1734
▁middle	-1735
▁roller	-1736
▁realize	-1737
▁beautiful	-1738
▁insurance	-1739
bt	-1740
▁guilty	-1741
▁bathroom	-1742
▁grateful	-1743
use	-1744
▁grow	-1745
▁norm	-1746
ointed	-1747
▁trash	-1748
▁hospital	-1749
com	-1750
ual	-1751
▁suc	-1752
▁top	-1753
▁curr	-1754
▁learned	-1755
bs	-1756
▁throw	-1757
▁absolut	-1758
ased	-1759
▁gym	-1760
▁ugh	-1761
ative	-1762
▁cons	-1763
▁impress	-1764
ones	-1765
▁starts	-1766
ens	-1767
▁bur	-1768
▁diet	-1769
▁pooped	-1770
▁frustrating	-1771
unt	-1772
olog	-1773
stal	-1774
▁due	-1775
▁ice	-1776
▁pot	-1777
▁poor	-1778
▁taken	-1779
▁secret	-1780
ings	-1781
▁quickly	-1782
▁received	-1783
ru	-1784
▁unex	-1785
ike	-1786
aked	-1787
▁lived	-1788
ior	-1789
ope	-1790
▁pat	-1791
▁bills	-1792
▁anyway	-1793
▁kinda	-1794
bl	-1795
ph	-1796
ular	-1797
▁line	-1798
▁build	-1799
▁borrow	-1800
▁finished	-1801
▁disappointed	-1802
sel	-1803
▁band	-1804
▁wants	-1805
▁telling	-1806
▁leg	-1807
ities	-1808
▁save	-1809
▁along	-1810
▁group	-1811
▁irrit	-1812
▁z	-1813
ient	-1814
fered	-1815
▁beat	-1816
▁meal	-1817
▁woman	-1818
▁friday	-1819
▁missed	-1820
▁ant	-1821
▁bra	-1822
▁liked	-1823
▁seemed	-1824
▁unexpected	-1825
000	-1826
▁rough	-1827
▁computer	-1828
▁absolutely	-1829
▁cats	-1830
▁gener	-1831
▁knows	-1832
▁wallet	-1833
▁animals	-1834
▁nu	-1835
▁peace	-1836
used	-1837
▁bud	-1838
▁yep	-1839
stalg	-1840
▁broken	-1841
compl	-1842
▁brand	-1843
▁roomm	-1844
▁tired	-1845
▁.	-1846
oor	-1847
▁add	-1848
▁pool	-1849
▁nostalg	-1850
pid	-1851
▁sal	-1852
▁lady	-1853
▁spr	-1854
▁7	-1855
▁kitche	-1856
▁offered	-1857
▁sort	-1858
▁monday	-1859
▁healthy	-1860
ouch	-1861
▁cup	-1862
▁disney	-1863
▁accompl	-1864
ial	-1865
itch	-1866
outh	-1867
▁bank	-1868
▁stuck	-1869
▁helping	-1870
▁kitchen	-1871
cha	-1872
▁scrat	-1873
▁saving	-1874
▁parking	-1875
▁30	-1876
▁coworkers	-1877
??	-1878
▁col	-1879
iving	-1880
▁aunt	-1881
▁slow	-1882
▁shoes	-1883
▁smell	-1884
▁expected	-1885
ese	-1886
book	-1887
▁acc	-1888
▁bat	-1889
▁appreciate	-1890
arch	-1891
hile	-1892
assing	-1893
▁dam	-1894
▁rent	-1895
▁offer	-1896
▁social	-1897
eed	-1898
rect	-1899
▁black	-1900
▁relaxing	-1901
▁rug	-1902
ashed	-1903
▁laugh	-1904
▁steal	-1905
▁pulled	-1906
▁surger	-1907
tle	-1908
▁cash	-1909
▁dest	-1910
▁rand	-1911
▁repl	-1912
▁tast	-1913
▁asking	-1914
▁growing	-1915
▁training	-1916
▁av	-1917
▁dan	-1918
▁missing	-1919
▁terrified	-1920
▁gas	-1921
▁sun	-1922
▁lives	-1923
▁deg	-1924
▁random	-1925
▁camping	-1926
▁cleaning	-1927
ize	-1928
▁ill	-1929
▁needs	-1930
▁coaster	-1931
▁shouldn	-1932
▁failed	-1933
time	-1934
▁hol	-1935
▁teach	-1936
▁stopped	-1937
rol	-1938
▁opt	-1939
▁given	-1940
▁power	-1941
▁giving	-1942
▁dollars	-1943
ses	-1944
▁hey	-1945
▁fish	-1946
▁animal	-1947
▁indeed	-1948
▁photos	-1949
▁changed	-1950
▁comfort	-1951
▁emotion	-1952
▁inf	-1953
▁chick	-1954
▁smash	-1955
▁amount	-1956
▁employ	-1957
▁finish	-1958
▁sunday	-1959
▁surgery	-1960
ired	-1961
ments	-1962
▁aren	-1963
▁serv	-1964
urious	-1965
▁helps	-1966
▁invited	-1967
sw	-1968
ket	-1969
uly	-1970
ters	-1971
▁arri	-1972
▁cele	-1973
▁ground	-1974
▁classes	-1975
gan	-1976
▁issu	-1977
▁phys	-1978
▁celebr	-1979
▁mot	-1980
▁prog	-1981
ks	-1982
ental	-1983
▁chur	-1984
▁song	-1985
▁parent	-1986
▁stupid	-1987
▁cars	-1988
▁pray	-1989
▁trusted	-1990
ured	-1991
ipped	-1992
▁publ	-1993
▁thankfully	-1994
▁die	-1995
▁intern	-1996
▁issues	-1997
▁cooking	-1998
▁reminded	-1999
vy	-2000
gin	-2001
cking	-2002
ication	-2003
▁saying	-2004
▁stayed	-2005
▁talked	-2006
▁cheating	-2007
no	-2008
ond	-2009
ber	-2010
▁ed	-2011
▁fit	-2012
▁answ	-2013
▁rude	-2014
▁awhile	-2015
▁noticed	-2016
▁success	-2017
▁$1	-2018
▁saved	-2019
▁holiday	-2020
▁perform	-2021
▁impressive	-2022
to	-2023
▁problems	-2024
cus	-2025
ssed	-2026
selves	-2027
▁dress	-2028
▁snake	-2029
▁become	-2030
▁church	-2031
▁spo	-2032
▁cause	-2033
▁trump	-2034
▁wanting	-2035
▁star	-2036
▁control	-2037
lies	-2038
ract	-2039
▁drunk	-2040
▁degree	-2041
▁showed	-2042
▁attention	-2043
▁cream	-2044
▁cancel	-2045
▁cruise	-2046
bbed	-2047
▁lar	-2048
ision	-2049
▁ball	-2050
▁reco	-2051
▁univers	-2052
▁$2	-2053
ging	-2054
▁kill	-2055
▁loan	-2056
▁nope	-2057
▁figure	-2058
ah	-2059
▁maj	-2060
▁dang	-2061
▁spilled	-2062
▁eventually	-2063
ility	-2064
▁coun	-2065
▁piece	-2066
▁honestly	-2067
aces	-2068
▁send	-2069
worker	-2070
▁brothers	-2071
oted	-2072
▁losing	-2073
▁nostalgic	-2074
icip	-2075
▁gar	-2076
fying	-2077
▁wear	-2078
▁floor	-2079
▁longer	-2080
▁strugg	-2081
▁enjoyed	-2082
ida	-2083
reme	-2084
ster	-2085
▁driver	-2086
▁mistake	-2087
▁complain	-2088
the	-2089
▁quit	-2090
▁noise	-2091
▁speak	-2092
▁promised	-2093
?!	-2094
▁opp	-2095
ified	-2096
▁shows	-2097
▁sisters	-2098
▁everywhere	-2099
ized	-2100
▁bother	-2101
▁hopeful	-2102
▁stepped	-2103
▁roommate	-2104
col	-2105
oid	-2106
▁lit	-2107
orida	-2108
▁wasnt	-2109
▁whenever	-2110
▁happening	-2111
ald	-2112
▁bon	-2113
▁smo	-2114
intend	-2115
▁score	-2116
▁embarrassing	-2117
een	-2118
host	-2119
▁tor	-2120
istic	-2121
▁lawn	-2122
father	-2123
▁fixed	-2124
▁easier	-2125
▁florida	-2126
▁service	-2127
ili	-2128
iss	-2129
▁cheat	-2130
▁ghost	-2131
▁stink	-2132
intendo	-2133
▁riding	-2134
▁nintendo	-2135
▁shop	-2136
▁candy	-2137
▁major	-2138
▁alright	-2139
cing	-2140
head	-2141
▁ten	-2142
▁expl	-2143
▁spee	-2144
rap	-2145
▁emp	-2146
▁chocol	-2147
du	-2148
▁rese	-2149
▁shame	-2150
▁hurric	-2151
▁public	-2152
▁deserve	-2153
ccer	-2154
dden	-2155
▁beha	-2156
▁blood	-2157
▁large	-2158
▁quest	-2159
▁soccer	-2160
▁sudden	-2161
▁possible	-2162
▁spending	-2163
▁grandfather	-2164
roy	-2165
▁ob	-2166
iety	-2167
▁qual	-2168
icious	-2169
▁buying	-2170
▁goodness	-2171
▁returned	-2172
▁stressful	-2173
mon	-2174
▁kno	-2175
▁wer	-2176
▁bare	-2177
▁fing	-2178
▁bonus	-2179
▁choice	-2180
▁jobs	-2181
▁kick	-2182
▁sign	-2183
▁meant	-2184
▁hahaha	-2185
key	-2186
und	-2187
▁ben	-2188
▁val	-2189
▁fear	-2190
▁syst	-2191
▁cheap	-2192
▁death	-2193
▁destroy	-2194
▁ass	-2195
▁prof	-2196
▁truly	-2197
▁putting	-2198
▁graduate	-2199
antly	-2200
▁wood	-2201
▁satis	-2202
▁contin	-2203
ries	-2204
vered	-2205
▁tour	-2206
▁nerve	-2207
▁extreme	-2208
▁strange	-2209
▁tripped	-2210
▁supplies	-2211
▁daughters	-2212
airs	-2213
issed	-2214
▁buddy	-2215
▁financial	-2216
▁gra	-2217
▁number	-2218
lo	-2219
ado	-2220
▁cau	-2221
▁fil	-2222
▁loss	-2223
▁nast	-2224
▁pets	-2225
▁cover	-2226
▁sense	-2227
▁devast	-2228
▁knowing	-2229
▁baseball	-2230
▁presentation	-2231
ored	-2232
▁vom	-2233
ushed	-2234
▁fire	-2235
▁using	-2236
▁package	-2237
▁disgusting	-2238
▁university	-2239
its	-2240
ault	-2241
▁exp	-2242
▁adop	-2243
▁means	-2244
▁sever	-2245
▁flight	-2246
▁furious	-2247
▁accepted	-2248
gu	-2249
con	-2250
ict	-2251
▁resc	-2252
▁miles	-2253
▁skill	-2254
▁picked	-2255
▁scream	-2256
ror	-2257
land	-2258
▁bird	-2259
▁eyes	-2260
▁train	-2261
▁opened	-2262
▁switch	-2263
▁respons	-2264
▁bow	-2265
▁teen	-2266
▁speed	-2267
▁follow	-2268
▁speech	-2269
▁contest	-2270
ze	-2271
uts	-2272
▁18	-2273
ering	-2274
iting	-2275
▁fault	-2276
▁annoyed	-2277
▁content	-2278
▁current	-2279
▁himself	-2280
▁chocolate	-2281
▁bug	-2282
▁eag	-2283
▁wre	-2284
▁fact	-2285
▁spot	-2286
▁ahead	-2287
▁nasty	-2288
▁strong	-2289
▁system	-2290
ency	-2291
itten	-2292
▁cried	-2293
▁empty	-2294
▁grandp	-2295
▁stinks	-2296
resh	-2297
▁gard	-2298
▁stra	-2299
▁thri	-2300
▁exams	-2301
▁paper	-2302
▁purcha	-2303
▁chicken	-2304
▁joy	-2305
▁alive	-2306
▁cheese	-2307
▁dating	-2308
▁pleased	-2309
▁scratch	-2310
ems	-2311
ilar	-2312
▁lay	-2313
unity	-2314
▁carp	-2315
▁apply	-2316
▁story	-2317
▁attend	-2318
▁cleaned	-2319
▁consider	-2320
aw	-2321
ory	-2322
yal	-2323
ises	-2324
▁100	-2325
▁adm	-2326
▁clear	-2327
▁relie	-2328
▁trans	-2329
▁attack	-2330
▁minute	-2331
▁notice	-2332
▁pissed	-2333
▁rather	-2334
▁sentim	-2335
▁anxiety	-2336
cc	-2337
fer	-2338
riage	-2339
▁sand	-2340
▁words	-2341
▁competition	-2342
don	-2343
ote	-2344
▁proper	-2345
▁research	-2346
▁delicious	-2347
▁afterwards	-2348
ww	-2349
chie	-2350
▁dump	-2351
▁mill	-2352
▁fresh	-2353
▁nerves	-2354
▁hum	-2355
▁bros	-2356
▁deep	-2357
▁four	-2358
▁badly	-2359
▁killed	-2360
▁staying	-2361
ches	-2362
▁pan	-2363
▁deli	-2364
inking	-2365
lloween	-2366
ointment	-2367
▁suppose	-2368
▁learning	-2369
▁sleeping	-2370
aged	-2371
▁det	-2372
▁cond	-2373
▁babies	-2374
ets	-2375
sue	-2376
▁har	-2377
▁adult	-2378
▁sport	-2379
▁halloween	-2380
▁graduation	-2381
▁pee	-2382
▁beer	-2383
▁shot	-2384
▁amazed	-2385
▁against	-2386
▁several	-2387
▁distance	-2388
▁hurricane	-2389
old	-2390
▁bot	-2391
▁cop	-2392
▁cre	-2393
▁eff	-2394
▁ive	-2395
▁low	-2396
▁torn	-2397
▁wont	-2398
▁touch	-2399
▁weren	-2400
▁garden	-2401
▁hungry	-2402
▁however	-2403
▁winning	-2404
▁annivers	-2405
▁whatever	-2406
▁extremely	-2407
ade	-2408
▁cro	-2409
▁nur	-2410
▁occ	-2411
ached	-2412
▁main	-2413
▁loves	-2414
▁loyal	-2415
▁ruined	-2416
▁swimming	-2417
den	-2418
how	-2419
ikes	-2420
▁cri	-2421
▁cold	-2422
▁achie	-2423
▁impro	-2424
▁items	-2425
▁barely	-2426
▁invest	-2427
▁normal	-2428
▁winter	-2429
▁student	-2430
▁accomplish	-2431
mbers	-2432
▁cust	-2433
▁fart	-2434
▁hadn	-2435
▁contact	-2436
▁key	-2437
▁blue	-2438
▁fort	-2439
▁share	-2440
▁shirt	-2441
▁effort	-2442
▁flying	-2443
▁towards	-2444
▁certainly	-2445
▁comfortable	-2446
▁feed	-2447
▁sell	-2448
▁pound	-2449
▁talent	-2450
▁herself	-2451
hh	-2452
ins	-2453
▁12	-2454
▁lic	-2455
▁pop	-2456
▁report	-2457
▁spider	-2458
▁cookies	-2459
▁finding	-2460
▁faithful	-2461
▁themselves	-2462
▁anniversary	-2463
▁appointment	-2464
by	-2465
▁50	-2466
▁et	-2467
reen	-2468
olved	-2469
▁bull	-2470
▁post	-2471
▁issue	-2472
▁heartb	-2473
▁checked	-2474
▁crashed	-2475
▁facebook	-2476
▁internet	-2477
▁irritated	-2478
▁terrifying	-2479
nam	-2480
▁mc	-2481
ront	-2482
▁squ	-2483
▁debt	-2484
▁hasn	-2485
▁lead	-2486
▁tree	-2487
coming	-2488
▁scare	-2489
▁bummer	-2490
▁satisfied	-2491
▁!	-2492
come	-2493
▁art	-2494
▁aut	-2495
▁pump	-2496
▁asleep	-2497
▁custom	-2498
▁filled	-2499
ude	-2500
ield	-2501
what	-2502
▁alb	-2503
▁jer	-2504
▁grew	-2505
▁sold	-2506
▁anticip	-2507
▁stranger	-2508
ub	-2509
oun	-2510
iest	-2511
▁tex	-2512
▁emerg	-2513
▁careful	-2514
▁drinking	-2515
▁sentimental	-2516
pper	-2517
chool	-2518
▁gold	-2519
▁text	-2520
▁avoid	-2521
▁glass	-2522
▁photo	-2523
▁travel	-2524
▁managed	-2525
50	-2526
▁er	-2527
mmed	-2528
▁sky	-2529
▁tax	-2530
▁cart	-2531
▁mort	-2532
▁couch	-2533
▁trave	-2534
▁manage	-2535
▁decision	-2536
▁homeless	-2537
▁visiting	-2538
let	-2539
aced	-2540
▁toys	-2541
▁decent	-2542
▁mostly	-2543
▁hearing	-2544
▁prepare	-2545
▁unfortunate	-2546
gr	-2547
erc	-2548
ums	-2549
vent	-2550
▁dou	-2551
▁bike	-2552
▁pays	-2553
▁const	-2554
▁packed	-2555
▁places	-2556
▁replace	-2557
▁promoted	-2558
▁drug	-2559
▁begin	-2560
▁color	-2561
▁crush	-2562
▁sched	-2563
▁carpet	-2564
▁somewhere	-2565
ta	-2566
ues	-2567
▁id	-2568
▁lie	-2569
ession	-2570
▁human	-2571
▁jumped	-2572
▁reading	-2573
ives	-2574
▁ign	-2575
▁feet	-2576
▁gosh	-2577
▁court	-2578
▁apolog	-2579
▁incred	-2580
▁inform	-2581
▁ya	-2582
ices	-2583
ptop	-2584
▁boo	-2585
▁body	-2586
donald	-2587
▁laptop	-2588
▁marriage	-2589
▁stressed	-2590
▁emotional	-2591
irty	-2592
▁nat	-2593
▁drove	-2594
▁process	-2595
▁anywhere	-2596
▁feelings	-2597
▁om	-2598
unted	-2599
▁stom	-2600
▁wearing	-2601
▁groceries	-2602
fl	-2603
olen	-2604
▁mall	-2605
▁danger	-2606
▁fortun	-2607
▁handle	-2608
▁building	-2609
▁devastated	-2610
lew	-2611
▁vet	-2612
▁burn	-2613
▁rock	-2614
▁says	-2615
▁allow	-2616
▁exerc	-2617
▁fired	-2618
▁organ	-2619
▁gun	-2620
▁wake	-2621
▁flood	-2622
▁satur	-2623
▁table	-2624
imistic	-2625
▁dentist	-2626
▁basement	-2627
▁dumb	-2628
▁schol	-2629
▁stomach	-2630
▁shouldnt	-2631
port	-2632
ended	-2633
▁shar	-2634
▁creep	-2635
▁grown	-2636
▁memory	-2637
sy	-2638
ube	-2639
▁egg	-2640
▁fat	-2641
▁laz	-2642
▁flow	-2643
▁hell	-2644
▁stick	-2645
▁haunted	-2646
▁disgusted	-2647
ien	-2648
ram	-2649
acks	-2650
▁hea	-2651
▁six	-2652
▁toil	-2653
▁gifts	-2654
▁hands	-2655
▁honor	-2656
▁twice	-2657
▁yelled	-2658
▁fingers	-2659
▁respect	-2660
▁turning	-2661
▁mcdonald	-2662
ef	-2663
agn	-2664
▁men	-2665
▁sen	-2666
▁chat	-2667
▁level	-2668
▁niece	-2669
▁drivers	-2670
▁reminds	-2671
▁saturday	-2672
wor	-2673
ween	-2674
▁bel	-2675
▁omg	-2676
▁vol	-2677
▁pair	-2678
▁requ	-2679
▁temp	-2680
arship	-2681
▁bummed	-2682
▁closed	-2683
▁dollar	-2684
▁opport	-2685
▁regret	-2686
▁between	-2687
▁optimistic	-2688
astic	-2689
▁prop	-2690
▁divor	-2691
▁plane	-2692
▁sandw	-2693
▁uncle	-2694
▁account	-2695
▁calling	-2696
▁medical	-2697
▁approved	-2698
▁upcoming	-2699
▁13	-2700
▁40	-2701
▁uh	-2702
ague	-2703
amed	-2704
▁yup	-2705
▁note	-2706
▁race	-2707
▁award	-2708
▁likes	-2709
▁bright	-2710
▁fishing	-2711
▁moments	-2712
▁scholarship	-2713
kward	-2714
▁drop	-2715
▁lazy	-2716
▁shel	-2717
▁tech	-2718
▁reward	-2719
▁convers	-2720
▁confidence	-2721
▁16	-2722
▁fant	-2723
inting	-2724
▁gives	-2725
▁career	-2726
▁grades	-2727
▁toilet	-2728
▁destroyed	-2729
▁emergency	-2730
hen	-2731
bron	-2732
▁hig	-2733
▁inj	-2734
▁sol	-2735
▁clim	-2736
▁york	-2737
though	-2738
▁boring	-2739
▁fiance	-2740
▁lebron	-2741
▁hanging	-2742
▁students	-2743
bit	-2744
ear	-2745
orn	-2746
ibly	-2747
nect	-2748
▁argu	-2749
▁doubt	-2750
▁advice	-2751
▁became	-2752
▁messed	-2753
▁shower	-2754
bby	-2755
gest	-2756
▁bey	-2757
check	-2758
▁drag	-2759
▁cance	-2760
▁doesnt	-2761
▁awkward	-2762
▁license	-2763
uc	-2764
ler	-2765
yard	-2766
▁unf	-2767
roken	-2768
▁boat	-2769
▁creat	-2770
▁motiv	-2771
▁cooked	-2772
▁harder	-2773
▁taught	-2774
▁million	-2775
▁although	-2776
ator	-2777
▁dude	-2778
▁lake	-2779
▁blame	-2780
▁blast	-2781
▁elect	-2782
llowing	-2783
▁biggest	-2784
▁involved	-2785
▁blo	-2786
▁eye	-2787
itude	-2788
▁board	-2789
▁liter	-2790
▁mount	-2791
▁speci	-2792
▁partic	-2793
▁stolen	-2794
▁depressed	-2795
min	-2796
eric	-2797
▁arm	-2798
▁calm	-2799
▁books	-2800
▁gotta	-2801
▁produ	-2802
▁americ	-2803
▁brings	-2804
▁eagles	-2805
▁fright	-2806
▁horror	-2807
▁specif	-2808
▁correct	-2809
▁explain	-2810
▁keeping	-2811
▁customer	-2812
▁dangerous	-2813
▁following	-2814
▁seriously	-2815
els	-2816
yle	-2817
idge	-2818
lect	-2819
ights	-2820
▁plus	-2821
▁rare	-2822
▁focus	-2823
▁mouth	-2824
▁within	-2825
▁flowers	-2826
▁normally	-2827
▁heartbroken	-2828
ilt	-2829
▁je	-2830
icle	-2831
▁alot	-2832
▁calc	-2833
▁heat	-2834
▁insp	-2835
▁reun	-2836
▁pride	-2837
▁yikes	-2838
artment	-2839
ointing	-2840
▁answer	-2841
▁burger	-2842
▁crying	-2843
▁kitten	-2844
▁therap	-2845
▁grossed	-2846
▁similar	-2847
▁particular	-2848
▁performance	-2849
ache	-2850
aper	-2851
ened	-2852
▁201	-2853
▁etc	-2854
▁lif	-2855
▁dirty	-2856
▁shoot	-2857
▁wreck	-2858
▁headed	-2859
▁tournam	-2860
▁experien	-2861
▁personal	-2862
▁trusting	-2863
ule	-2864
read	-2865
▁neg	-2866
▁five	-2867
▁keys	-2868
▁camer	-2869
▁spray	-2870
▁skills	-2871
▁spring	-2872
▁achieve	-2873
▁tornado	-2874
asy	-2875
omes	-2876
erved	-2877
kemon	-2878
ology	-2879
▁crow	-2880
▁whats	-2881
▁basket	-2882
▁refund	-2883
▁station	-2884
▁grandpar	-2885
▁celebrate	-2886
vis	-2887
▁hy	-2888
enty	-2889
ides	-2890
▁pig	-2891
▁surv	-2892
▁oldest	-2893
▁robbed	-2894
▁babysit	-2895
▁wouldnt	-2896
▁backyard	-2897
▁breaking	-2898
▁mistakes	-2899
▁suddenly	-2900
▁disappointing	-2901
ift	-2902
▁fed	-2903
▁nic	-2904
▁odd	-2905
▁desp	-2906
▁nail	-2907
▁cross	-2908
▁diagn	-2909
▁south	-2910
▁beyond	-2911
▁charge	-2912
▁spouse	-2913
▁arrived	-2914
▁pokemon	-2915
▁confront	-2916
▁laughing	-2917
ued	-2918
▁pun	-2919
▁rat	-2920
itted	-2921
▁hide	-2922
▁moms	-2923
▁horri	-2924
▁track	-2925
▁lights	-2926
▁literally	-2927
ges	-2928
iod	-2929
xic	-2930
iders	-2931
▁desk	-2932
▁prov	-2933
▁landl	-2934
▁react	-2935
▁period	-2936
▁mountain	-2937
▁19	-2938
ergy	-2939
▁goal	-2940
▁crowd	-2941
ational	-2942
▁review	-2943
▁waited	-2944
▁depress	-2945
▁freaked	-2946
▁letting	-2947
▁receive	-2948
▁visited	-2949
▁landlord	-2950
▁paycheck	-2951
▁gri	-2952
ulous	-2953
▁tend	-2954
▁depend	-2955
▁fridge	-2956
▁relate	-2957
▁straight	-2958
go	-2959
ky	-2960
ghed	-2961
ines	-2962
▁cir	-2963
ising	-2964
▁dish	-2965
▁yout	-2966
mbered	-2967
▁pleas	-2968
▁space	-2969
▁closer	-2970
▁instru	-2971
▁market	-2972
▁rescue	-2973
▁coasters	-2974
▁question	-2975
▁constantly	-2976
eth	-2977
ety	-2978
unte	-2979
▁mag	-2980
board	-2981
▁mood	-2982
giving	-2983
▁carry	-2984
▁crash	-2985
▁field	-2986
▁easily	-2987
▁stoked	-2988
▁shelter	-2989
▁somehow	-2990
▁subject	-2991
▁volunte	-2992
▁practice	-2993
▁currently	-2994
▁thanksgiving	-2995
ai	-2996
here	-2997
reed	-2998
▁agg	-2999
▁jud	-3000
▁tin	-3001
iling	-3002
▁rush	-3003
▁behav	-3004
▁hated	-3005
▁calcul	-3006
▁closet	-3007
▁except	-3008
▁havent	-3009
▁noises	-3010
▁simple	-3011
▁teenag	-3012
▁doctors	-3013
▁helpful	-3014
▁vomited	-3015
▁continue	-3016
▁randomly	-3017
▁cancelled	-3018
ove	-3019
▁rac	-3020
▁bowl	-3021
▁ring	-3022
▁steps	-3023
▁third	-3024
▁yours	-3025
▁caring	-3026
▁hitting	-3027
▁delivery	-3028
ato	-3029
gar	-3030
▁da	-3031
▁lab	-3032
▁mix	-3033
▁furn	-3034
▁shock	-3035
▁supri	-3036
▁white	-3037
▁evening	-3038
▁laughed	-3039
▁passing	-3040
▁remembered	-3041
llen	-3042
medi	-3043
▁tre	-3044
▁typ	-3045
▁uns	-3046
▁veg	-3047
▁flat	-3048
▁roof	-3049
▁brown	-3050
▁immedi	-3051
▁smelled	-3052
▁stealing	-3053
▁purchased	-3054
".	-3055
thy	-3056
▁14	-3057
cake	-3058
fast	-3059
illy	-3060
▁cas	-3061
icing	-3062
iture	-3063
urity	-3064
▁assu	-3065
▁appar	-3066
▁loose	-3067
▁mexic	-3068
▁hardly	-3069
▁sports	-3070
▁improve	-3071
▁program	-3072
▁youtube	-3073
▁successful	-3074
ery	-3075
ots	-3076
▁rot	-3077
▁spl	-3078
ident	-3079
▁educ	-3080
▁tire	-3081
▁ways	-3082
▁offic	-3083
▁pounds	-3084
▁progress	-3085
▁sandwich	-3086
▁concerned	-3087
▁conversation	-3088
▁grandparents	-3089
atic	-3090
back	-3091
rage	-3092
▁email	-3093
▁tooth	-3094
▁woods	-3095
▁bigger	-3096
▁nearly	-3097
▁prefer	-3098
▁afterno	-3099
▁throwing	-3100
▁furniture	-3101
▁apparently	-3102
ays	-3103
you	-3104
ckey	-3105
sion	-3106
▁$20	-3107
▁awe	-3108
▁hid	-3109
igned	-3110
▁jack	-3111
▁jerk	-3112
▁amuse	-3113
▁bless	-3114
▁techn	-3115
▁caused	-3116
▁nobody	-3117
▁please	-3118
▁repair	-3119
▁ripped	-3120
▁regular	-3121
▁slipped	-3122
▁spiders	-3123
▁attitude	-3124
▁afternoon	-3125
▁amusement	-3126
▁basketball	-3127
▁opportunity	-3128
bly	-3129
lish	-3130
▁pit	-3131
▁sep	-3132
▁butt	-3133
▁conv	-3134
▁craw	-3135
▁polit	-3136
▁total	-3137
ilities	-3138
▁affect	-3139
▁charac	-3140
▁engine	-3141
▁lesson	-3142
▁letter	-3143
▁nights	-3144
▁pumped	-3145
▁product	-3146
▁complete	-3147
▁deserved	-3148
▁security	-3149
▁sometime	-3150
▁breakfast	-3151
▁tournament	-3152
,000	-3153
cent	-3154
▁none	-3155
▁shut	-3156
ushing	-3157
▁waste	-3158
▁acting	-3159
▁divorce	-3160
▁patient	-3161
▁therapy	-3162
▁basically	-3163
▁information	-3164
gers	-3165
ures	-3166
▁net	-3167
▁tas	-3168
▁toe	-3169
▁toy	-3170
▁gate	-3171
▁lane	-3172
▁known	-3173
▁teeth	-3174
▁tests	-3175
iculous	-3176
▁burned	-3177
▁damage	-3178
▁farted	-3179
▁invite	-3180
▁lovely	-3181
▁cashier	-3182
▁covered	-3183
▁fantastic	-3184
▁struggling	-3185
she	-3186
▁25	-3187
▁lun	-3188
▁saf	-3189
▁veh	-3190
gging	-3191
under	-3192
▁bugs	-3193
▁bump	-3194
▁todd	-3195
▁cards	-3196
▁drank	-3197
▁grass	-3198
▁miser	-3199
▁press	-3200
▁price	-3201
coaster	-3202
▁direct	-3203
▁drives	-3204
▁heights	-3205
▁physics	-3206
▁applying	-3207
▁youngest	-3208
▁graduating	-3209
▁immediately	-3210
icy	-3211
ipe	-3212
mit	-3213
▁vo	-3214
▁bal	-3215
▁tho	-3216
▁alar	-3217
▁form	-3218
▁dance	-3219
▁owner	-3220
ibility	-3221
▁dreams	-3222
▁garage	-3223
▁despite	-3224
▁english	-3225
▁enjoying	-3226
▁interested	-3227
▁profession	-3228
▁rollercoaster	-3229
▁90	-3230
▁cell	-3231
▁disc	-3232
▁flew	-3233
▁nose	-3234
▁prin	-3235
▁tiny	-3236
▁above	-3237
▁occas	-3238
▁plant	-3239
▁women	-3240
▁abused	-3241
▁belong	-3242
▁hockey	-3243
▁crossed	-3244
▁general	-3245
▁holding	-3246
▁nowhere	-3247
▁picking	-3248
▁whether	-3249
▁speeding	-3250
▁listening	-3251
▁frustrated	-3252
lu	-3253
oul	-3254
urs	-3255
ames	-3256
ares	-3257
ific	-3258
mart	-3259
▁nap	-3260
ening	-3261
▁gain	-3262
▁sale	-3263
▁attic	-3264
▁eaten	-3265
▁media	-3266
▁sales	-3267
▁taste	-3268
▁dishes	-3269
▁relief	-3270
▁wasted	-3271
▁attract	-3272
▁engaged	-3273
▁raining	-3274
▁calculus	-3275
▁holidays	-3276
▁supervis	-3277
▁ba	-3278
care	-3279
hlet	-3280
▁awww	-3281
▁repe	-3282
▁till	-3283
▁mower	-3284
▁athlet	-3285
▁senior	-3286
▁entered	-3287
▁figured	-3288
▁employee	-3289
▁speaking	-3290
ayed	-3291
bage	-3292
▁200	-3293
aches	-3294
conom	-3295
▁neck	-3296
▁rode	-3297
▁wild	-3298
▁breat	-3299
▁freak	-3300
▁fully	-3301
▁perha	-3302
▁stage	-3303
▁texas	-3304
▁vegas	-3305
▁econom	-3306
▁garbage	-3307
▁reunion	-3308
▁selling	-3309
▁peaceful	-3310
▁somewhat	-3311
▁teaching	-3312
▁mortified	-3313
hol	-3314
ris	-3315
uro	-3316
eral	-3317
whel	-3318
▁oil	-3319
▁ris	-3320
▁tip	-3321
▁peed	-3322
▁rele	-3323
▁skin	-3324
▁disco	-3325
▁flies	-3326
▁lefto	-3327
▁lying	-3328
▁purse	-3329
▁sweat	-3330
▁double	-3331
▁energy	-3332
▁challen	-3333
▁perhaps	-3334
▁stories	-3335
▁ridiculous	-3336
▁accomplished	-3337
▁ep	-3338
▁bes	-3339
▁bun	-3340
▁pie	-3341
▁row	-3342
cohol	-3343
▁hist	-3344
▁onto	-3345
▁crack	-3346
▁drugs	-3347
▁intro	-3348
▁creepy	-3349
▁decide	-3350
▁unable	-3351
▁unless	-3352
▁worker	-3353
▁adopted	-3354
▁alcohol	-3355
▁crushed	-3356
▁kinderg	-3357
▁knocked	-3358
▁argument	-3359
▁specific	-3360
▁miserable	-3361
▁supervisor	-3362
▁11	-3363
erly	-3364
akers	-3365
ients	-3366
otect	-3367
▁draw	-3368
▁seat	-3369
▁soft	-3370
▁parts	-3371
▁blamed	-3372
▁ending	-3373
▁parked	-3374
▁recipe	-3375
▁retire	-3376
▁behavior	-3377
▁somebody	-3378
▁practicing	-3379
iqu	-3380
chan	-3381
town	-3382
ural	-3383
▁por	-3384
▁mach	-3385
▁meat	-3386
▁vacu	-3387
▁goals	-3388
▁uncom	-3389
▁drinks	-3390
▁higher	-3391
▁league	-3392
▁loving	-3393
▁series	-3394
▁bedroom	-3395
▁blessed	-3396
▁vehicle	-3397
▁borrowed	-3398
▁exercise	-3399
▁condition	-3400
▁diagnosed	-3401
▁mcdonalds	-3402
▁irritating	-3403
▁ju	-3404
ages	-3405
▁sib	-3406
▁til	-3407
▁held	-3408
▁jail	-3409
▁milk	-3410
▁skyd	-3411
▁climb	-3412
▁match	-3413
▁locked	-3414
▁screen	-3415
▁airport	-3416
▁members	-3417
boy	-3418
ites	-3419
▁ded	-3420
▁haw	-3421
▁exce	-3422
▁laid	-3423
school	-3424
stairs	-3425
▁deter	-3426
▁earth	-3427
▁mater	-3428
▁motor	-3429
▁happier	-3430
▁canceled	-3431
▁appreciated	-3432
ino	-3433
uth	-3434
cket	-3435
gged	-3436
real	-3437
▁jun	-3438
▁ohh	-3439
▁rad	-3440
▁$100	-3441
▁cent	-3442
▁neat	-3443
▁hired	-3444
▁hotel	-3445
▁hurts	-3446
▁steak	-3447
▁albums	-3448
▁record	-3449
▁history	-3450
▁pregnan	-3451
▁followed	-3452
▁perfectly	-3453
▁preparing	-3454
▁financially	-3455
▁remembering	-3456
ls	-3457
ival	-3458
▁enc	-3459
cious	-3460
iliar	-3461
izing	-3462
night	-3463
sters	-3464
▁chem	-3465
▁snow	-3466
▁warm	-3467
▁bread	-3468
▁fence	-3469
▁guard	-3470
▁traum	-3471
▁wrote	-3472
▁lakers	-3473
▁peeved	-3474
▁protect	-3475
▁walmart	-3476
▁overwhel	-3477
▁everytime	-3478
▁questions	-3479
▁department	-3480
▁friendship	-3481
af	-3482
omm	-3483
▁$5	-3484
wise	-3485
▁nah	-3486
arten	-3487
▁bell	-3488
▁boys	-3489
▁dece	-3490
▁sooo	-3491
▁adopt	-3492
▁hawai	-3493
▁prize	-3494
▁shift	-3495
▁swear	-3496
▁addict	-3497
▁plenty	-3498
▁raised	-3499
▁charged	-3500
▁thrones	-3501
▁schedule	-3502
▁thrilled	-3503
▁traveling	-3504
▁interviews	-3505
▁accomplishment	-3506
ama	-3507
fish	-3508
like	-3509
▁ski	-3510
iring	-3511
▁join	-3512
atives	-3513
itched	-3514
▁alarm	-3515
▁beard	-3516
▁homes	-3517
▁plays	-3518
▁agreed	-3519
▁corner	-3520
▁signed	-3521
▁vacuum	-3522
▁hurting	-3523
▁praying	-3524
▁science	-3525
▁sibling	-3526
▁education	-3527
▁cheesecake	-3528
iled	-3529
▁ace	-3530
▁cab	-3531
▁mod	-3532
▁tom	-3533
▁crap	-3534
▁ouch	-3535
▁priv	-3536
▁slam	-3537
▁cheer	-3538
▁porch	-3539
▁stray	-3540
▁sugar	-3541
▁likely	-3542
▁snacks	-3543
▁falling	-3544
▁quality	-3545
▁apprehen	-3546
▁driveway	-3547
▁president	-3548
▁ow	-3549
▁doc	-3550
▁lbs	-3551
▁nor	-3552
▁sus	-3553
▁wet	-3554
inder	-3555
phone	-3556
▁dire	-3557
▁kiss	-3558
▁lock	-3559
▁size	-3560
▁soup	-3561
icking	-3562
▁blank	-3563
▁giant	-3564
▁heavy	-3565
▁reach	-3566
▁shape	-3567
mployed	-3568
▁landed	-3569
▁recomm	-3570
▁opening	-3571
▁believed	-3572
▁beginning	-3573
▁practiced	-3574
▁pregnancy	-3575
son	-3576
▁..	-3577
ater	-3578
ison	-3579
tain	-3580
vere	-3581
alled	-3582
▁film	-3583
▁fond	-3584
▁hall	-3585
▁hund	-3586
▁mile	-3587
▁acted	-3588
mentary	-3589
workers	-3590
▁convin	-3591
▁fairly	-3592
▁hiking	-3593
▁mechan	-3594
▁scored	-3595
fortable	-3596
▁obvious	-3597
▁promise	-3598
▁recover	-3599
▁shining	-3600
▁trained	-3601
▁property	-3602
▁screaming	-3603
▁skydiving	-3604
do	-3605
oc	-3606
ari	-3607
het	-3608
ume	-3609
vid	-3610
ring	-3611
▁den	-3612
▁ham	-3613
▁las	-3614
▁guit	-3615
▁hous	-3616
▁mult	-3617
▁push	-3618
▁rely	-3619
▁cared	-3620
▁fancy	-3621
▁trail	-3622
▁trick	-3623
▁truth	-3624
▁backed	-3625
▁dumped	-3626
▁humili	-3627
▁storms	-3628
▁relaxed	-3629
▁checking	-3630
▁occasion	-3631
▁kindergarten	-3632
box	-3633
▁21	-3634
▁non	-3635
▁oce	-3636
▁wit	-3637
light	-3638
▁club	-3639
▁damn	-3640
▁ends	-3641
▁pigs	-3642
▁suck	-3643
▁whoa	-3644
icated	-3645
orting	-3646
▁judge	-3647
▁kinds	-3648
▁style	-3649
▁france	-3650
▁severe	-3651
▁videos	-3652
▁funeral	-3653
▁hundred	-3654
▁machine	-3655
▁mention	-3656
▁overall	-3657
▁payment	-3658
▁yelling	-3659
▁pressure	-3660
▁upsetting	-3661
▁incredible	-3662
▁appreciative	-3663
).	-3664
aly	-3665
eez	-3666
ero	-3667
ife	-3668
▁ge	-3669
▁dem	-3670
▁flu	-3671
▁ket	-3672
▁pen	-3673
▁ren	-3674
▁buff	-3675
▁cops	-3676
▁heck	-3677
▁mass	-3678
▁nuts	-3679
▁rout	-3680
▁upon	-3681
▁bored	-3682
▁calls	-3683
▁potty	-3684
▁spoke	-3685
▁value	-3686
▁advant	-3687
▁guitar	-3688
▁injured	-3689
▁bringing	-3690
▁supportive	-3691
▁uncomfortable	-3692
da	-3693
zz	-3694
alk	-3695
ute	-3696
inis	-3697
tern	-3698
▁...	-3699
▁esc	-3700
▁gig	-3701
▁ori	-3702
▁wel	-3703
velop	-3704
▁load	-3705
▁remo	-3706
▁shes	-3707
▁bucks	-3708
▁built	-3709
▁champ	-3710
▁drama	-3711
▁knock	-3712
▁marry	-3713
▁plate	-3714
▁america	-3715
▁sounded	-3716
▁understanding	-3717
kn	-3718
la	-3719
cri	-3720
ped	-3721
lept	-3722
rupt	-3723
ship	-3724
that	-3725
▁est	-3726
▁unp	-3727
▁euro	-3728
▁sons	-3729
▁vase	-3730
ivered	-3731
▁cable	-3732
▁fries	-3733
▁mario	-3734
▁arrive	-3735
▁kicked	-3736
▁loaned	-3737
▁master	-3738
▁smooth	-3739
▁daycare	-3740
▁develop	-3741
▁illness	-3742
▁passion	-3743
▁community	-3744
▁delivered	-3745
▁professional	-3746
my	-3747
pa	-3748
▁fra	-3749
▁psy	-3750
▁und	-3751
▁span	-3752
▁stri	-3753
▁wash	-3754
▁blind	-3755
▁hurry	-3756
▁ocean	-3757
▁thurs	-3758
▁excell	-3759
▁phones	-3760
▁recogn	-3761
▁dealing	-3762
▁respond	-3763
▁staring	-3764
▁negative	-3765
▁previous	-3766
▁everybody	-3767
▁situations	-3768
▁application	-3769
▁apprehensive	-3770
lex	-3771
ceed	-3772
▁dig	-3773
achel	-3774
adays	-3775
anted	-3776
oming	-3777
▁earn	-3778
▁isnt	-3779
▁trad	-3780
▁benef	-3781
▁braves	-3782
▁common	-3783
▁hawaii	-3784
▁member	-3785
▁tinder	-3786
▁advance	-3787
▁reminis	-3788
▁thunder	-3789
▁writing	-3790
▁teenager	-3791
▁otherwise	-3792
ees	-3793
men	-3794
▁:/	-3795
▁bri	-3796
▁lad	-3797
▁mac	-3798
▁zoo	-3799
ences	-3800
plant	-3801
▁purp	-3802
▁tall	-3803
▁horse	-3804
▁silly	-3805
onsider	-3806
▁bachel	-3807
▁recent	-3808
▁remain	-3809
▁slowly	-3810
▁dancing	-3811
▁nowadays	-3812
▁physical	-3813
▁thursday	-3814
▁weekends	-3815
▁leftovers	-3816
▁incredibly	-3817
▁experienced	-3818
▁expectations	-3819
rav	-3820
▁ban	-3821
▁dut	-3822
▁goo	-3823
tered	-3824
▁bust	-3825
▁kore	-3826
▁mark	-3827
▁soul	-3828
lected	-3829
worthy	-3830
▁admit	-3831
▁chann	-3832
▁dread	-3833
▁foods	-3834
▁rides	-3835
▁somed	-3836
▁aggrav	-3837
▁insane	-3838
▁mental	-3839
▁painful	-3840
▁becoming	-3841
▁responsible	-3842
fc	-3843
ape	-3844
mmy	-3845
▁bi	-3846
just	-3847
uary	-3848
▁$50	-3849
▁dry	-3850
▁eld	-3851
ances	-3852
andon	-3853
▁bite	-3854
▁bomb	-3855
▁chip	-3856
▁envy	-3857
▁hill	-3858
▁scar	-3859
▁shoe	-3860
▁soci	-3861
▁unkn	-3862
▁yuck	-3863
▁calif	-3864
▁stock	-3865
▁write	-3866
▁itself	-3867
▁multip	-3868
▁pepper	-3869
▁player	-3870
▁search	-3871
▁snakes	-3872
▁abandon	-3873
▁allowed	-3874
▁meaning	-3875
▁nursing	-3876
▁starved	-3877
▁counting	-3878
▁electric	-3879
▁thoughts	-3880
▁waitress	-3881
▁advantage	-3882
▁excellent	-3883
▁anticipating	-3884
cut	-3885
law	-3886
mpt	-3887
nes	-3888
born	-3889
ores	-3890
▁aug	-3891
▁fur	-3892
▁huh	-3893
▁mal	-3894
▁mos	-3895
ornia	-3896
▁choo	-3897
▁cock	-3898
▁flag	-3899
▁host	-3900
▁lord	-3901
▁ruin	-3902
illing	-3903
▁breed	-3904
▁livid	-3905
▁medic	-3906
cessary	-3907
sidered	-3908
▁dragon	-3909
▁europe	-3910
▁junior	-3911
▁cousins	-3912
▁schools	-3913
▁secrets	-3914
▁fighting	-3915
▁presents	-3916
onsiderate	-3917
▁california	-3918
▁surprising	-3919
▁inconsiderate	-3920
▁understandable	-3921
male	-3922
▁aud	-3923
▁fro	-3924
▁mow	-3925
▁sau	-3926
▁tou	-3927
icted	-3928
▁corn	-3929
▁dear	-3930
▁tail	-3931
▁activ	-3932
▁airpl	-3933
▁album	-3934
▁boxes	-3935
▁decor	-3936
▁bottle	-3937
▁casino	-3938
▁female	-3939
▁marath	-3940
▁anytime	-3941
▁motorcy	-3942
▁homework	-3943
▁frightened	-3944
vs	-3945
eng	-3946
ina	-3947
pin	-3948
▁ol	-3949
▁tu	-3950
flix	-3951
ique	-3952
quit	-3953
▁mir	-3954
▁wan	-3955
▁tele	-3956
ership	-3957
ousand	-3958
▁houses	-3959
▁madden	-3960
▁nearby	-3961
▁parcel	-3962
▁regist	-3963
▁stairs	-3964
employed	-3965
▁closing	-3966
▁netflix	-3967
▁provide	-3968
▁toddler	-3969
▁workout	-3970
▁thousand	-3971
▁considered	-3972
ey	-3973
▁x	-3974
acy	-3975
oon	-3976
▁na	-3977
ians	-3978
lace	-3979
▁equ	-3980
▁mer	-3981
▁tac	-3982
▁eggs	-3983
▁jour	-3984
▁suff	-3985
tember	-3986
▁birds	-3987
▁hopes	-3988
▁smile	-3989
▁songs	-3990
ination	-3991
▁allerg	-3992
▁fights	-3993
▁nature	-3994
▁stores	-3995
▁tasted	-3996
▁tricks	-3997
▁uneasy	-3998
▁ditched	-3999
▁highway	-4000
▁mosquit	-4001
▁neither	-4002
▁schedul	-4003
▁familiar	-4004
▁purchase	-4005
▁apologize	-4006
▁qualified	-4007
▁relatives	-4008
▁attractive	-4009
▁difference	-4010
▁management	-4011
ton	-4012
!!!!	-4013
inge	-4014
mark	-4015
heart	-4016
ially	-4017
▁ador	-4018
▁bott	-4019
▁cord	-4020
▁dirt	-4021
▁rich	-4022
▁soda	-4023
▁stat	-4024
▁unha	-4025
▁wine	-4026
▁daily	-4027
▁veget	-4028
entally	-4029
▁laying	-4030
▁origin	-4031
▁overse	-4032
▁reject	-4033
▁message	-4034
▁singing	-4035
▁someday	-4036
▁adorable	-4037
▁competit	-4038
▁december	-4039
▁multiple	-4040
▁necklace	-4041
▁talented	-4042
▁committed	-4043
▁direction	-4044
▁highschool	-4045
▁trustworthy	-4046
▁'	-4047
iot	-4048
ley	-4049
off	-4050
▁ec	-4051
ffle	-4052
▁tes	-4053
acing	-4054
▁blow	-4055
▁bond	-4056
▁chef	-4057
▁hole	-4058
▁oven	-4059
▁spit	-4060
▁suit	-4061
▁task	-4062
▁vers	-4063
▁encou	-4064
▁fried	-4065
▁loans	-4066
▁shake	-4067
▁trips	-4068
▁annual	-4069
▁commun	-4070
▁pushed	-4071
▁grandpa	-4072
▁granted	-4073
▁savings	-4074
▁society	-4075
▁warning	-4076
▁washing	-4077
▁approach	-4078
▁finances	-4079
▁marathon	-4080
▁overcome	-4081
▁painting	-4082
▁relative	-4083
▁spelling	-4084
▁teachers	-4085
▁fortunate	-4086
▁rewarding	-4087
▁elementary	-4088
▁motorcycle	-4089
▁travelling	-4090
▁considering	-4091
bow	-4092
ply	-4093
uct	-4094
ulf	-4095
▁80	-4096
walk	-4097
▁cla	-4098
apers	-4099
oring	-4100
▁betr	-4101
▁farm	-4102
▁holy	-4103
▁pupp	-4104
▁scen	-4105
▁unlo	-4106
▁clown	-4107
▁salad	-4108
▁taxes	-4109
▁usual	-4110
▁unsure	-4111
▁classic	-4112
▁connect	-4113
▁diapers	-4114
▁jumping	-4115
▁packing	-4116
▁texting	-4117
▁unknown	-4118
ification	-4119
▁colorado	-4120
▁distract	-4121
▁overseas	-4122
▁properly	-4123
▁shooting	-4124
▁happiness	-4125
▁obviously	-4126
▁recommend	-4127
▁scratched	-4128
▁humiliated	-4129
▁physically	-4130
▁volunteered	-4131
."	-4132
od	-4133
▁22	-4134
ials	-4135
rish	-4136
they	-4137
▁bee	-4138
▁dar	-4139
▁pha	-4140
▁tow	-4141
▁tro	-4142
ender	-4143
▁bear	-4144
▁duck	-4145
▁gest	-4146
▁golf	-4147
▁inse	-4148
▁isol	-4149
▁sink	-4150
▁abuse	-4151
▁avail	-4152
▁baked	-4153
▁frequ	-4154
▁habit	-4155
▁nicer	-4156
▁sadly	-4157
▁tesla	-4158
▁wanna	-4159
▁budget	-4160
▁donuts	-4161
▁poison	-4162
▁ignored	-4163
▁printer	-4164
▁sending	-4165
▁airplane	-4166
▁crossing	-4167
▁mountains	-4168
▁september	-4169
sc	-4170
val	-4171
was	-4172
▁cu	-4173
hand	-4174
▁ang	-4175
▁fer	-4176
▁poo	-4177
least	-4178
▁bags	-4179
▁junk	-4180
▁risk	-4181
▁stro	-4182
ending	-4183
▁basic	-4184
▁tight	-4185
ionship	-4186
▁classm	-4187
▁client	-4188
▁pocket	-4189
▁potato	-4190
▁sucked	-4191
▁answers	-4192
▁anybody	-4193
▁bearded	-4194
▁cherish	-4195
▁economy	-4196
▁numbers	-4197
▁purpose	-4198
▁reasons	-4199
▁refused	-4200
▁skating	-4201
▁wishing	-4202
▁athletic	-4203
▁changing	-4204
▁emotions	-4205
▁replaced	-4206
▁shocking	-4207
▁terribly	-4208
▁roommates	-4209
yy	-4210
iew	-4211
ode	-4212
une	-4213
▁60	-4214
pers	-4215
ught	-4216
wear	-4217
▁gre	-4218
▁mic	-4219
▁oct	-4220
▁sex	-4221
▁sne	-4222
▁100%	-4223
▁aver	-4224
▁fund	-4225
▁rear	-4226
▁view	-4227
▁apple	-4228
▁hobby	-4229
▁oppos	-4230
▁paint	-4231
▁spare	-4232
▁demand	-4233
▁determ	-4234
▁finger	-4235
▁scares	-4236
▁simply	-4237
▁turtle	-4238
▁ability	-4239
▁atleast	-4240
▁average	-4241
▁chasing	-4242
▁elderly	-4243
▁expired	-4244
▁forgive	-4245
▁natural	-4246
▁puppies	-4247
▁rescued	-4248
▁willing	-4249
▁attacked	-4250
▁employer	-4251
▁national	-4252
▁struggle	-4253
▁underwear	-4254
▁depression	-4255
▁interviewed	-4256
nis	-4257
▁$3	-4258
▁4.	-4259
atch	-4260
▁hmm	-4261
ooked	-4262
▁dise	-4263
▁fill	-4264
▁fool	-4265
▁hire	-4266
rested	-4267
vision	-4268
▁crime	-4269
▁dying	-4270
▁green	-4271
▁incre	-4272
▁scold	-4273
▁camera	-4274
▁excuse	-4275
▁gather	-4276
▁income	-4277
▁joyful	-4278
▁shorts	-4279
▁cameras	-4280
▁collect	-4281
▁complex	-4282
▁courage	-4283
▁hardest	-4284
▁introdu	-4285
▁lessons	-4286
▁unhappy	-4287
▁blessing	-4288
▁precious	-4289
▁screamed	-4290
▁standing	-4291
▁transfer	-4292
▁ourselves	-4293
▁characters	-4294
▁retirement	-4295
ana	-4296
att	-4297
chy	-4298
vir	-4299
▁oo	-4300
ades	-4301
list	-4302
▁eww	-4303
▁rob	-4304
▁sil	-4305
▁wis	-4306
arter	-4307
ength	-4308
erves	-4309
ilies	-4310
▁bout	-4311
▁duty	-4312
▁epis	-4313
▁opin	-4314
▁rabb	-4315
▁tues	-4316
▁flags	-4317
▁labor	-4318
▁owned	-4319
▁screw	-4320
▁split	-4321
▁announ	-4322
▁chased	-4323
▁leaves	-4324
▁intense	-4325
▁related	-4326
▁tuesday	-4327
▁deserves	-4328
▁wracking	-4329
▁bothering	-4330
▁wondering	-4331
▁approached	-4332
▁relationships	-4333
ism	-4334
▁$4	-4335
angu	-4336
ober	-4337
onse	-4338
ples	-4339
▁cap	-4340
▁hat	-4341
▁shy	-4342
▁tar	-4343
eless	-4344
▁knee	-4345
▁scam	-4346
▁spir	-4347
▁trou	-4348
▁unit	-4349
▁jeans	-4350
▁langu	-4351
▁mouse	-4352
▁psych	-4353
▁talks	-4354
▁assume	-4355
▁county	-4356
▁thinks	-4357
▁bothers	-4358
▁bowling	-4359
▁express	-4360
▁failing	-4361
▁gesture	-4362
▁nephews	-4363
▁october	-4364
▁welcome	-4365
▁families	-4366
▁guessing	-4367
▁hometown	-4368
▁monsters	-4369
▁particip	-4370
▁response	-4371
▁restroom	-4372
▁siblings	-4373
▁available	-4374
▁favorites	-4375
▁motivated	-4376
▁organized	-4377
▁depressing	-4378
▁overwhelming	-4379
▁responsibility	-4380
lla	-4381
bowl	-4382
hest	-4383
ires	-4384
osit	-4385
over	-4386
▁gor	-4387
▁unb	-4388
apped	-4389
bling	-4390
istry	-4391
place	-4392
▁edge	-4393
▁mold	-4394
▁outf	-4395
▁coast	-4396
▁puked	-4397
▁ramen	-4398
▁shots	-4399
▁assign	-4400
▁buffet	-4401
▁circus	-4402
▁infect	-4403
▁joined	-4404
▁litter	-4405
▁besides	-4406
▁deposit	-4407
▁hunting	-4408
▁mission	-4409
▁stubbed	-4410
▁succeed	-4411
▁workers	-4412
▁crawling	-4413
▁mechanic	-4414
▁relieved	-4415
▁chemistry	-4416
▁scheduled	-4417
▁internship	-4418
bul	-4419
ids	-4420
ify	-4421
iol	-4422
ops	-4423
ron	-4424
shi	-4425
ury	-4426
▁24	-4427
anes	-4428
mare	-4429
▁ufc	-4430
.....	-4431
aming	-4432
▁incl	-4433
▁legs	-4434
▁role	-4435
▁thro	-4436
▁uber	-4437
▁arent	-4438
▁debit	-4439
▁names	-4440
▁prior	-4441
▁august	-4442
▁butter	-4443
▁colors	-4444
▁mexico	-4445
▁strang	-4446
▁tastes	-4447
▁ticked	-4448
▁damaged	-4449
▁heading	-4450
▁killing	-4451
▁mexican	-4452
▁officer	-4453
▁profess	-4454
▁windows	-4455
▁contract	-4456
▁friendly	-4457
▁abilities	-4458
▁nostalgia	-4459
▁apologized	-4460
▁17	-4461
▁ef	-4462
apan	-4463
atia	-4464
bles	-4465
ivid	-4466
ners	-4467
pons	-4468
road	-4469
▁ble	-4470
▁hes	-4471
▁yay	-4472
▁coll	-4473
▁fest	-4474
▁king	-4475
▁pant	-4476
▁wore	-4477
raught	-4478
▁blown	-4479
▁chair	-4480
▁flash	-4481
▁indep	-4482
▁japan	-4483
▁limit	-4484
▁radio	-4485
▁round	-4486
▁vomit	-4487
▁abroad	-4488
▁booked	-4489
▁diving	-4490
▁effect	-4491
▁payday	-4492
▁tennis	-4493
▁compass	-4494
▁deliver	-4495
▁attached	-4496
▁catching	-4497
▁material	-4498
▁opposite	-4499
▁sidewalk	-4500
▁suprising	-4501
▁distraught	-4502
▁throughout	-4503
▁anticipation	-4504
gy	-4505
▁dm	-4506
boys	-4507
gage	-4508
vern	-4509
▁ole	-4510
▁tea	-4511
▁tim	-4512
acked	-4513
antic	-4514
▁aced	-4515
▁cavs	-4516
▁chew	-4517
▁crit	-4518
▁docu	-4519
▁inno	-4520
▁lets	-4521
▁lies	-4522
▁path	-4523
▁pian	-4524
▁pink	-4525
ential	-4526
market	-4527
▁force	-4528
▁hello	-4529
▁laund	-4530
▁magic	-4531
▁prank	-4532
▁recon	-4533
▁voice	-4534
racking	-4535
▁advent	-4536
▁battle	-4537
▁breath	-4538
▁rained	-4539
▁slight	-4540
▁treats	-4541
▁unfair	-4542
▁barking	-4543
▁clearly	-4544
▁private	-4545
▁bachelor	-4546
▁election	-4547
▁freshman	-4548
▁independ	-4549
▁selected	-4550
▁determined	-4551
▁thoughtful	-4552
▁achievement	-4553
▁championship	-4554
gs	-4555
car	-4556
ker	-4557
ony	-4558
▁bak	-4559
▁fru	-4560
▁rom	-4561
asing	-4562
iment	-4563
▁1000	-4564
▁dads	-4565
▁fulf	-4566
▁nest	-4567
▁pics	-4568
▁yell	-4569
acting	-4570
ission	-4571
▁agent	-4572
▁chose	-4573
▁range	-4574
▁slept	-4575
▁socks	-4576
▁types	-4577
▁access	-4578
▁breaks	-4579
▁candid	-4580
▁events	-4581
▁posted	-4582
▁prices	-4583
▁propos	-4584
▁causing	-4585
▁croatia	-4586
▁journey	-4587
▁matters	-4588
▁mothers	-4589
▁opinion	-4590
▁pulling	-4591
▁smoking	-4592
▁spanish	-4593
▁stuffed	-4594
▁treated	-4595
▁chatting	-4596
▁compared	-4597
▁medicine	-4598
▁mentally	-4599
▁proposed	-4600
▁worrying	-4601
▁abandoned	-4602
▁treatment	-4603
▁fortunately	-4604
▁certification	-4605
ium	-4606
kin	-4607
ston	-4608
▁rul	-4609
▁san	-4610
▁tab	-4611
hered	-4612
shirt	-4613
▁ages	-4614
▁bake	-4615
▁chin	-4616
▁hike	-4617
▁joke	-4618
▁shat	-4619
▁taco	-4620
▁zero	-4621
nesday	-4622
phones	-4623
▁areas	-4624
▁backp	-4625
▁sushi	-4626
▁wound	-4627
▁actual	-4628
▁altern	-4629
▁faster	-4630
▁finals	-4631
▁rabbit	-4632
▁raffle	-4633
▁throat	-4634
▁thrown	-4635
vernment	-4636
▁counsel	-4637
▁cowboys	-4638
▁dressed	-4639
▁haircut	-4640
▁players	-4641
▁request	-4642
▁survive	-4643
▁climbing	-4644
▁disaster	-4645
▁possibly	-4646
▁strength	-4647
▁employees	-4648
▁nightmare	-4649
▁superbowl	-4650
▁wednesday	-4651
▁downstairs	-4652
▁instructor	-4653
ern	-4654
cles	-4655
ench	-4656
haha	-4657
rats	-4658
▁$10	-4659
▁fal	-4660
▁fav	-4661
▁mut	-4662
▁ooo	-4663
▁ult	-4664
▁usa	-4665
viron	-4666
▁2000	-4667
▁auto	-4668
▁bang	-4669
▁clue	-4670
▁ecst	-4671
▁evil	-4672
▁lent	-4673
▁lift	-4674
▁ohhh	-4675
▁pile	-4676
▁port	-4677
▁sket	-4678
aiting	-4679
isions	-4680
▁binge	-4681
▁chest	-4682
▁claim	-4683
▁hilar	-4684
▁influ	-4685
▁lines	-4686
▁simpl	-4687
▁center	-4688
▁diaper	-4689
▁donate	-4690
▁mainly	-4691
▁pieces	-4692
▁spoken	-4693
▁temper	-4694
▁disease	-4695
▁environ	-4696
▁laundry	-4697
▁recital	-4698
▁showing	-4699
▁written	-4700
▁american	-4701
▁arrested	-4702
▁ecstatic	-4703
▁expenses	-4704
▁ordering	-4705
▁pleasant	-4706
▁decisions	-4707
▁hilarious	-4708
▁discovered	-4709
▁environment	-4710
▁unexpectedly	-4711
fo	-4712
mw	-4713
ob	-4714
ye	-4715
alu	-4716
oke	-4717
oss	-4718
sis	-4719
▁bmw	-4720
▁dmv	-4721
▁rip	-4722
▁ven	-4723
ggest	-4724
usive	-4725
▁blew	-4726
▁deer	-4727
▁item	-4728
▁tons	-4729
▁wars	-4730
▁wasp	-4731
▁witn	-4732
▁began	-4733
▁bench	-4734
▁brave	-4735
▁chill	-4736
▁enter	-4737
▁evalu	-4738
▁hesit	-4739
▁husky	-4740
▁mixed	-4741
▁nurse	-4742
▁smoke	-4743
▁commit	-4744
▁rotten	-4745
▁toward	-4746
▁waking	-4747
▁wooded	-4748
▁chances	-4749
▁charity	-4750
▁happend	-4751
▁parties	-4752
▁popular	-4753
▁retired	-4754
▁reviews	-4755
▁suggest	-4756
▁addition	-4757
▁innocent	-4758
▁isolated	-4759
▁language	-4760
▁mortgage	-4761
▁survived	-4762
▁forgotten	-4763
▁struggled	-4764
▁vacations	-4765
▁witnessed	-4766
▁compassion	-4767
▁dealership	-4768
ik	-4769
ts	-4770
ada	-4771
amp	-4772
bed	-4773
mma	-4774
rep	-4775
▁lu	-4776
▁yo	-4777
step	-4778
uses	-4779
uten	-4780
▁imm	-4781
▁umb	-4782
▁uni	-4783
▁army	-4784
▁cage	-4785
▁keto	-4786
ground	-4787
▁alley	-4788
▁boost	-4789
▁doors	-4790
▁exist	-4791
▁exten	-4792
▁grind	-4793
▁irked	-4794
▁lotto	-4795
▁model	-4796
▁parks	-4797
▁punch	-4798
▁renew	-4799
▁rules	-4800
▁shady	-4801
▁sight	-4802
▁tries	-4803
▁bakery	-4804
▁chores	-4805
▁crappy	-4806
▁ladies	-4807
▁punish	-4808
▁safely	-4809
▁sooner	-4810
▁balance	-4811
▁changes	-4812
▁couples	-4813
▁curious	-4814
▁grabbed	-4815
▁simpler	-4816
▁allergic	-4817
▁inspired	-4818
▁paperwork	-4819
▁embarassed	-4820
▁personally	-4821
▁television	-4822
▁engineering	-4823
der	-4824
dow	-4825
now	-4826
▁fu	-4827
▁ip	-4828
ilot	-4829
▁cig	-4830
▁kar	-4831
▁tit	-4832
▁yog	-4833
ature	-4834
mbled	-4835
vable	-4836
▁comb	-4837
▁darn	-4838
▁hung	-4839
▁tent	-4840
ctions	-4841
▁brain	-4842
▁cabin	-4843
▁drown	-4844
▁knife	-4845
▁meals	-4846
▁piano	-4847
▁scrap	-4848
▁squid	-4849
▁tears	-4850
▁thick	-4851
▁action	-4852
▁assist	-4853
▁baking	-4854
▁choose	-4855
▁cockro	-4856
▁ghosts	-4857
▁rarely	-4858
▁stroke	-4859
▁flooded	-4860
▁reality	-4861
▁slammed	-4862
▁worries	-4863
▁awaiting	-4864
▁benefits	-4865
▁greatest	-4866
▁headache	-4867
▁invested	-4868
▁professor	-4869
▁transport	-4870
▁exercising	-4871
▁supermarket	-4872
--	-4873
cl	-4874
gic	-4875
uss	-4876
acle	-4877
cher	-4878
ctic	-4879
door	-4880
ipes	-4881
▁500	-4882
▁aid	-4883
▁fol	-4884
▁mma	-4885
lando	-4886
uable	-4887
▁decl	-4888
▁file	-4889
▁geez	-4890
▁lack	-4891
▁nove	-4892
▁rage	-4893
▁ship	-4894
▁upgr	-4895
inated	-4896
luding	-4897
mentia	-4898
▁block	-4899
▁bound	-4900
▁coach	-4901
▁gorge	-4902
▁idiot	-4903
▁kitty	-4904
▁treas	-4905
▁youth	-4906
ception	-4907
▁ignore	-4908
▁object	-4909
▁onions	-4910
▁option	-4911
▁papers	-4912
▁craving	-4913
▁kidding	-4914
▁orlando	-4915
▁setting	-4916
▁storage	-4917
▁theater	-4918
▁trailer	-4919
▁version	-4920
▁careless	-4921
▁dementia	-4922
▁eggplant	-4923
▁november	-4924
▁reaction	-4925
▁signific	-4926
▁valuable	-4927
▁addiction	-4928
▁character	-4929
▁belongings	-4930
▁generation	-4931
5.	-4932
ok	-4933
ale	-4934
for	-4935
iam	-4936
lli	-4937
oms	-4938
▁ps	-4939
aded	-4940
cies	-4941
ille	-4942
itis	-4943
made	-4944
▁arg	-4945
▁ess	-4946
▁ing	-4947
▁sea	-4948
▁ver	-4949
▁yan	-4950
iable	-4951
ively	-4952
mares	-4953
▁$200	-4954
▁fake	-4955
▁febr	-4956
▁grab	-4957
▁hits	-4958
▁hood	-4959
▁lend	-4960
▁male	-4961
▁oops	-4962
▁panc	-4963
▁uses	-4964
ercial	-4965
urning	-4966
▁appet	-4967
▁forth	-4968
▁lonel	-4969
▁skunk	-4970
▁sorts	-4971
▁straw	-4972
▁tells	-4973
▁theme	-4974
▁tools	-4975
mission	-4976
▁adjust	-4977
▁discus	-4978
▁fixing	-4979
▁jacket	-4980
▁served	-4981
▁turkey	-4982
▁choices	-4983
▁highest	-4984
▁lifting	-4985
▁sketchy	-4986
▁february	-4987
▁listened	-4988
▁location	-4989
▁midnight	-4990
▁potatoes	-4991
▁required	-4992
▁softball	-4993
▁finishing	-4994
▁responsib	-4995
▁disneyland	-4996
▁frequently	-4997
▁loneliness	-4998
▁nightmares	-4999
▁complicated	-5000
▁rollercoasters	-5001
!?	-5002
bu	-5003
iff	-5004
lol	-5005
▁70	-5006
cony	-5007
elie	-5008
year	-5009
▁ank	-5010
▁fac	-5011
▁gut	-5012
▁lap	-5013
▁nie	-5014
▁tha	-5015
▁yum	-5016
cript	-5017
hamas	-5018
icate	-5019
uggle	-5020
▁$500	-5021
▁arms	-5022
▁hers	-5023
▁july	-5024
▁thru	-5025
▁tool	-5026
▁tran	-5027
▁based	-5028
▁marks	-5029
▁naked	-5030
▁separ	-5031
▁serve	-5032
▁vegan	-5033
ossible	-5034
▁ingred	-5035
▁korean	-5036
▁nieces	-5037
▁regard	-5038
▁shadow	-5039
▁subway	-5040
▁target	-5041
▁theres	-5042
wracking	-5043
▁bahamas	-5044
▁balcony	-5045
▁chinese	-5046
▁delayed	-5047
▁pretend	-5048
▁shaking	-5049
▁tuition	-5050
▁freaking	-5051
▁gambling	-5052
▁maintain	-5053
▁released	-5054
▁accidents	-5055
▁challenge	-5056
▁companies	-5057
▁completed	-5058
▁political	-5059
▁reconnect	-5060
▁thunderst	-5061
▁volunteer	-5062
▁activities	-5063
▁impossible	-5064
▁supporting	-5065
▁celebrating	-5066
▁experiences	-5067
gle	-5068
hor	-5069
ung	-5070
▁45	-5071
▁fb	-5072
cipl	-5073
orms	-5074
raft	-5075
▁kay	-5076
▁owe	-5077
▁teh	-5078
▁var	-5079
▁wra	-5080
adill	-5081
watch	-5082
▁2018	-5083
▁asap	-5084
▁atte	-5085
▁demo	-5086
▁ferr	-5087
▁harv	-5088
▁irma	-5089
▁picn	-5090
▁runs	-5091
▁semi	-5092
▁term	-5093
ashing	-5094
priate	-5095
▁chase	-5096
▁sauce	-5097
▁stain	-5098
▁tasty	-5099
▁teams	-5100
▁twins	-5101
ization	-5102
venient	-5103
▁cookie	-5104
▁gaming	-5105
▁nailed	-5106
▁reserv	-5107
▁actions	-5108
▁aggress	-5109
▁channel	-5110
▁counter	-5111
▁cutting	-5112
▁depends	-5113
▁example	-5114
▁hamster	-5115
▁lunches	-5116
▁discount	-5117
▁gorgeous	-5118
▁horribly	-5119
▁colleague	-5120
▁generally	-5121
▁inspiring	-5122
▁presented	-5123
▁shattered	-5124
▁approaching	-5125
▁frightening	-5126
▁grandfathers	-5127
sp	-5128
▁*	-5129
can	-5130
dog	-5131
ups	-5132
bour	-5133
oons	-5134
osis	-5135
well	-5136
▁800	-5137
▁clu	-5138
▁deb	-5139
▁exh	-5140
▁woo	-5141
ables	-5142
mming	-5143
▁boun	-5144
▁firm	-5145
▁harm	-5146
▁lawy	-5147
▁pill	-5148
▁whil	-5149
▁yoga	-5150
icycle	-5151
ipping	-5152
▁guest	-5153
▁guilt	-5154
▁ideas	-5155
▁insec	-5156
▁notes	-5157
▁roach	-5158
▁squir	-5159
ability	-5160
respons	-5161
▁errand	-5162
▁french	-5163
▁gained	-5164
▁gluten	-5165
▁handed	-5166
▁settle	-5167
▁cheaper	-5168
▁climate	-5169
▁handful	-5170
▁healing	-5171
▁leading	-5172
▁quarter	-5173
▁reached	-5174
▁resched	-5175
▁smashed	-5176
▁clothing	-5177
▁rejected	-5178
▁troubles	-5179
▁yearbook	-5180
▁convinced	-5181
▁necessary	-5182
▁neighbour	-5183
▁returning	-5184
▁boyfriends	-5185
▁headphones	-5186
▁technology	-5187
▁understood	-5188
▁ingredients	-5189
▁restaurants	-5190
,,	-5191
ih	-5192
▁<	-5193
lbs	-5194
nda	-5195
▁2.	-5196
edom	-5197
raph	-5198
when	-5199
enced	-5200
icked	-5201
itary	-5202
stand	-5203
urger	-5204
ville	-5205
▁cope	-5206
▁ease	-5207
▁exha	-5208
▁whom	-5209
igious	-5210
▁cares	-5211
▁hoped	-5212
▁hubby	-5213
▁hyped	-5214
▁lower	-5215
▁sneak	-5216
▁spoil	-5217
▁umbre	-5218
reaking	-5219
▁bumped	-5220
▁gifted	-5221
▁groups	-5222
▁heaven	-5223
▁retail	-5224
▁spirit	-5225
▁texted	-5226
▁tragic	-5227
▁blanket	-5228
▁fiancee	-5229
▁freedom	-5230
▁options	-5231
▁reflect	-5232
▁sharing	-5233
▁spoiled	-5234
▁totaled	-5235
▁brownies	-5236
▁dumpster	-5237
▁festival	-5238
▁goldfish	-5239
▁handling	-5240
▁patience	-5241
▁smoothly	-5242
▁sweating	-5243
▁upstairs	-5244
▁clearance	-5245
▁encourage	-5246
▁irrespons	-5247
▁lightning	-5248
▁reception	-5249
▁recovered	-5250
▁teenagers	-5251
▁workplace	-5252
▁appartment	-5253
▁beforehand	-5254
▁celebrated	-5255
▁government	-5256
▁medication	-5257
▁girlfriends	-5258
),	-5259
???	-5260
hab	-5261
urb	-5262
▁ur	-5263
hold	-5264
itor	-5265
ware	-5266
weet	-5267
▁gal	-5268
▁gpa	-5269
▁jet	-5270
▁mur	-5271
▁tun	-5272
attoo	-5273
ledge	-5274
oting	-5275
round	-5276
▁acts	-5277
▁cast	-5278
▁east	-5279
▁gear	-5280
▁info	-5281
▁ipad	-5282
▁quiz	-5283
▁rate	-5284
▁shri	-5285
▁skip	-5286
▁sour	-5287
idence	-5288
▁argue	-5289
▁cakes	-5290
▁dried	-5291
▁hahah	-5292
▁handy	-5293
▁leash	-5294
▁messy	-5295
▁north	-5296
▁beside	-5297
▁canada	-5298
▁highly	-5299
▁impact	-5300
▁lawyer	-5301
▁loudly	-5302
▁plants	-5303
▁states	-5304
▁tattoo	-5305
▁thrift	-5306
▁blowing	-5307
▁crowded	-5308
▁ferrari	-5309
▁glasses	-5310
▁repairs	-5311
▁routine	-5312
▁unbelie	-5313
▁appetite	-5314
▁generous	-5315
▁kayaking	-5316
▁military	-5317
▁countries	-5318
▁eachother	-5319
▁mentioned	-5320
▁babysitter	-5321
▁distracted	-5322
▁motivation	-5323
▁personality	-5324
%.	-5325
lly	-5326
mer	-5327
rot	-5328
▁$6	-5329
▁3.	-5330
avor	-5331
ints	-5332
sole	-5333
▁ais	-5334
▁foc	-5335
▁hah	-5336
▁suv	-5337
raged	-5338
uming	-5339
▁belt	-5340
▁init	-5341
▁kitt	-5342
▁moon	-5343
▁puts	-5344
▁site	-5345
▁webs	-5346
ograph	-5347
▁chain	-5348
▁cruel	-5349
▁minor	-5350
▁overd	-5351
▁pasta	-5352
▁repay	-5353
▁rolls	-5354
▁sunny	-5355
▁walls	-5356
▁yanke	-5357
▁admire	-5358
▁picnic	-5359
▁placed	-5360
▁points	-5361
▁skiing	-5362
▁surely	-5363
▁episode	-5364
▁exhaust	-5365
▁focused	-5366
▁foreign	-5367
▁hospice	-5368
▁infront	-5369
▁messing	-5370
▁newborn	-5371
▁roomate	-5372
▁bothered	-5373
▁hesitant	-5374
▁payments	-5375
▁sweetest	-5376
▁continues	-5377
▁homeschool	-5378
▁aggravating	-5379
▁competitive	-5380
▁complaining	-5381
hy	-5382
rm	-5383
ti	-5384
ago	-5385
lic	-5386
▁--	-5387
cons	-5388
iens	-5389
lley	-5390
otic	-5391
▁300	-5392
▁ger	-5393
▁led	-5394
▁paj	-5395
▁pup	-5396
arant	-5397
house	-5398
▁chic	-5399
▁dess	-5400
▁diab	-5401
▁eats	-5402
▁navy	-5403
▁rice	-5404
▁sore	-5405
▁susp	-5406
▁tear	-5407
▁tips	-5408
▁finds	-5409
▁intim	-5410
▁occur	-5411
▁panic	-5412
▁patch	-5413
▁rehab	-5414
▁shark	-5415
▁snack	-5416
▁swall	-5417
section	-5418
▁aliens	-5419
▁busted	-5420
▁crimin	-5421
▁design	-5422
▁iphone	-5423
▁repeat	-5424
▁safety	-5425
▁threat	-5426
▁tomato	-5427
▁unique	-5428
▁accused	-5429
▁becomes	-5430
▁capable	-5431
▁ceiling	-5432
▁cracked	-5433
▁dessert	-5434
▁england	-5435
▁joining	-5436
▁pushing	-5437
▁seconds	-5438
▁serving	-5439
▁shortly	-5440
▁wrecked	-5441
▁confused	-5442
▁repeated	-5443
▁startled	-5444
▁suprised	-5445
▁contacted	-5446
▁instantly	-5447
▁regularly	-5448
▁strangers	-5449
▁apartments	-5450
▁directions	-5451
▁horrifying	-5452
▁reschedule	-5453
▁significant	-5454
ii	-5455
dad	-5456
olf	-5457
pes	-5458
rel	-5459
ser	-5460
tte	-5461
zed	-5462
▁py	-5463
▁ug	-5464
cast	-5465
comp	-5466
corn	-5467
down	-5468
mony	-5469
▁18.	-5470
▁clo	-5471
▁fee	-5472
▁max	-5473
▁sam	-5474
▁van	-5475
▁web	-5476
afood	-5477
ipper	-5478
mower	-5479
▁budd	-5480
▁pity	-5481
▁repa	-5482
▁snap	-5483
▁spar	-5484
▁stub	-5485
erence	-5486
ertain	-5487
▁flirt	-5488
▁greet	-5489
▁james	-5490
▁jerks	-5491
▁skate	-5492
▁stays	-5493
▁wings	-5494
respect	-5495
unities	-5496
▁beaten	-5497
▁bosses	-5498
▁cities	-5499
▁prison	-5500
▁refuse	-5501
▁console	-5502
▁letters	-5503
▁popcorn	-5504
▁seafood	-5505
▁streets	-5506
▁teenage	-5507
▁touched	-5508
▁mosquito	-5509
▁original	-5510
▁pancreat	-5511
▁patients	-5512
▁shoulder	-5513
▁starving	-5514
▁umbrella	-5515
▁afterward	-5516
▁attending	-5517
▁entertain	-5518
▁improving	-5519
▁including	-5520
▁intention	-5521
▁lawnmower	-5522
▁stressing	-5523
▁assignment	-5524
▁evaluation	-5525
▁considerate	-5526
▁embarassing	-5527
▁independent	-5528
▁possibility	-5529
▁opportunities	-5530
"!	-5531
cr	-5532
tt	-5533
aun	-5534
ave	-5535
fun	-5536
ils	-5537
pot	-5538
▁$8	-5539
▁1.	-5540
▁eh	-5541
bean	-5542
hole	-5543
lers	-5544
lymp	-5545
play	-5546
ucks	-5547
umes	-5548
▁ahh	-5549
▁doo	-5550
▁ego	-5551
▁nfl	-5552
▁plu	-5553
ading	-5554
aging	-5555
apple	-5556
cedes	-5557
order	-5558
ustry	-5559
▁cass	-5560
▁cudd	-5561
▁diss	-5562
▁kidd	-5563
▁mont	-5564
▁pine	-5565
▁tore	-5566
▁unif	-5567
▁unus	-5568
erving	-5569
▁anger	-5570
▁burst	-5571
▁dated	-5572
▁firew	-5573
▁folks	-5574
▁lease	-5575
▁momma	-5576
▁olymp	-5577
▁pharm	-5578
▁slide	-5579
▁tires	-5580
▁trees	-5581
▁troph	-5582
aration	-5583
aunting	-5584
estated	-5585
▁adults	-5586
▁betray	-5587
▁desper	-5588
▁detail	-5589
▁diabet	-5590
▁essent	-5591
▁excite	-5592
▁hectic	-5593
▁hiding	-5594
▁racing	-5595
▁sadden	-5596
▁shared	-5597
▁shirts	-5598
▁stable	-5599
▁visits	-5600
▁wheels	-5601
▁whilst	-5602
▁wished	-5603
cription	-5604
tersweet	-5605
▁abusive	-5606
▁behaved	-5607
▁discipl	-5608
▁evicted	-5609
▁screwed	-5610
▁selfish	-5611
▁testing	-5612
▁topping	-5613
▁adoption	-5614
▁declined	-5615
▁directly	-5616
▁evidence	-5617
▁happiest	-5618
▁homemade	-5619
▁industry	-5620
▁informed	-5621
▁mercedes	-5622
▁reliable	-5623
▁secretly	-5624
▁slightly	-5625
▁standard	-5626
▁stepping	-5627
▁horrified	-5628
▁overnight	-5629
▁pineapple	-5630
▁potential	-5631
▁pretended	-5632
▁reminisce	-5633
▁collection	-5634
▁dedication	-5635
▁devestated	-5636
▁impression	-5637
▁passionate	-5638
▁productive	-5639
▁scratching	-5640
▁alternative	-5641
▁bittersweet	-5642
▁participate	-5643
▁preparation	-5644
▁irresponsible	-5645
ca	-5646
fa	-5647
emo	-5648
ios	-5649
▁35	-5650
ange	-5651
luck	-5652
orks	-5653
race	-5654
tled	-5655
▁hul	-5656
▁mri	-5657
▁obs	-5658
▁upd	-5659
cture	-5660
ented	-5661
nival	-5662
rency	-5663
using	-5664
ution	-5665
▁brac	-5666
▁bree	-5667
▁deck	-5668
▁flip	-5669
▁flir	-5670
▁ford	-5671
▁hamb	-5672
▁meds	-5673
▁nine	-5674
▁pred	-5675
▁slap	-5676
▁thor	-5677
▁wave	-5678
action	-5679
▁craig	-5680
▁deals	-5681
▁disag	-5682
▁eager	-5683
▁elses	-5684
▁overs	-5685
▁solid	-5686
▁uncer	-5687
▁wheel	-5688
▁ballet	-5689
▁bottom	-5690
▁donald	-5691
▁goodby	-5692
▁hostel	-5693
▁muscle	-5694
▁outfit	-5695
▁sharks	-5696
▁tempor	-5697
▁terrif	-5698
▁trauma	-5699
▁twenty	-5700
function	-5701
▁chicago	-5702
▁figures	-5703
▁halfway	-5704
▁harvard	-5705
▁individ	-5706
▁matches	-5707
▁outcome	-5708
▁propose	-5709
▁release	-5710
▁rushing	-5711
▁transit	-5712
▁website	-5713
▁yankees	-5714
▁carnival	-5715
▁hundreds	-5716
▁perspect	-5717
▁rewarded	-5718
▁stubborn	-5719
▁toddlers	-5720
▁extension	-5721
▁fireworks	-5722
▁realizing	-5723
▁recognize	-5724
▁switching	-5725
▁uncertain	-5726
▁universal	-5727
▁complained	-5728
▁forgetting	-5729
▁sweetheart	-5730
▁vegetables	-5731
▁reminiscing	-5732
▁understands	-5733
▁specifically	-5734
▁surprisingly	-5735
▁heartbreaking	-5736
▁transportation	-5737
rs	-5738
▁/	-5739
bra	-5740
cky	-5741
gun	-5742
ota	-5743
ows	-5744
▁23	-5745
▁cy	-5746
▁yu	-5747
reak	-5748
▁hip	-5749
▁jan	-5750
▁mug	-5751
▁mum	-5752
▁tut	-5753
allas	-5754
anoid	-5755
ivity	-5756
oured	-5757
ribut	-5758
riger	-5759
verse	-5760
world	-5761
▁$300	-5762
▁bran	-5763
▁copy	-5764
▁fans	-5765
▁lean	-5766
▁oper	-5767
▁spag	-5768
▁viol	-5769
▁weak	-5770
▁wins	-5771
▁yall	-5772
estyle	-5773
ustral	-5774
▁added	-5775
▁fruit	-5776
▁italy	-5777
▁lasts	-5778
▁payed	-5779
▁sharp	-5780
▁stood	-5781
▁ultim	-5782
▁warri	-5783
▁youre	-5784
ercials	-5785
▁active	-5786
▁behold	-5787
▁cigare	-5788
▁dallas	-5789
▁golden	-5790
▁google	-5791
▁healed	-5792
▁infuri	-5793
▁makeup	-5794
▁mirror	-5795
▁passes	-5796
▁pizzas	-5797
▁repres	-5798
▁salary	-5799
▁spread	-5800
▁sticky	-5801
▁austral	-5802
▁beating	-5803
▁command	-5804
▁dislike	-5805
▁drawing	-5806
▁fortune	-5807
▁further	-5808
▁ghosted	-5809
▁interst	-5810
▁mailbox	-5811
▁discover	-5812
▁dreading	-5813
▁investig	-5814
▁paranoid	-5815
▁refriger	-5816
▁software	-5817
▁surround	-5818
▁adventure	-5819
▁classroom	-5820
▁lifestyle	-5821
▁mosquitos	-5822
▁suffering	-5823
▁tradition	-5824
▁aggressive	-5825
▁classmates	-5826
▁disrespect	-5827
▁hurricanes	-5828
▁psychology	-5829
1.	-5830
hn	-5831
▁&	-5832
omb	-5833
ona	-5834
▁cd	-5835
ided	-5836
nies	-5837
suit	-5838
▁bid	-5839
▁civ	-5840
▁kis	-5841
▁meg	-5842
▁pal	-5843
doors	-5844
oomed	-5845
▁apri	-5846
▁asia	-5847
▁bars	-5848
▁boom	-5849
▁cere	-5850
▁fees	-5851
▁hass	-5852
▁hero	-5853
▁lung	-5854
▁pors	-5855
▁russ	-5856
▁shed	-5857
▁subm	-5858
▁toes	-5859
▁unne	-5860
▁whis	-5861
▁xbox	-5862
icians	-5863
▁ankle	-5864
▁beers	-5865
▁comed	-5866
▁freez	-5867
▁grill	-5868
▁honda	-5869
▁loads	-5870
▁named	-5871
▁neice	-5872
▁prove	-5873
▁tasks	-5874
▁terms	-5875
▁affair	-5876
▁behave	-5877
▁breast	-5878
▁elated	-5879
▁exchan	-5880
▁fallen	-5881
▁humans	-5882
▁owners	-5883
▁passen	-5884
▁shifts	-5885
▁thrill	-5886
▁anyways	-5887
▁battery	-5888
▁buddies	-5889
▁butterf	-5890
▁failure	-5891
▁goodbye	-5892
▁kicking	-5893
▁masters	-5894
▁musical	-5895
▁organic	-5896
▁percent	-5897
▁pumpkin	-5898
▁punched	-5899
▁removed	-5900
▁rotting	-5901
▁slapped	-5902
▁smaller	-5903
▁spaghet	-5904
▁achieved	-5905
▁channels	-5906
▁downtown	-5907
▁dressing	-5908
▁function	-5909
▁insecure	-5910
▁keyboard	-5911
▁lonesome	-5912
▁outdoors	-5913
▁resolved	-5914
▁announced	-5915
▁dedicated	-5916
▁installed	-5917
▁marketing	-5918
▁searching	-5919
▁excitement	-5920
▁introduced	-5921
▁protective	-5922
▁celebration	-5923
▁practically	-5924
▁transferred	-5925
▁refrigerator	-5926
▁reservations	-5927
oh	-5928
ask	-5929
lif	-5930
rop	-5931
▁34	-5932
▁bb	-5933
▁hr	-5934
hich	-5935
lant	-5936
lted	-5937
mate	-5938
roll	-5939
udge	-5940
zard	-5941
▁$25	-5942
▁199	-5943
▁mud	-5944
▁tag	-5945
anced	-5946
arily	-5947
berry	-5948
ictor	-5949
iding	-5950
slist	-5951
▁ahhh	-5952
▁beef	-5953
▁elev	-5954
▁feat	-5955
▁goss	-5956
▁hype	-5957
▁pier	-5958
▁robb	-5959
▁tank	-5960
▁wise	-5961
arched	-5962
ibbean	-5963
ifying	-5964
sitive	-5965
washer	-5966
▁awake	-5967
▁awwww	-5968
▁bands	-5969
▁basis	-5970
▁chunk	-5971
▁dough	-5972
▁gunsh	-5973
▁humid	-5974
▁korea	-5975
▁lined	-5976
▁nails	-5977
▁pitch	-5978
▁racco	-5979
▁stops	-5980
▁brakes	-5981
▁burden	-5982
▁causes	-5983
▁covers	-5984
▁cutest	-5985
▁foster	-5986
▁parrot	-5987
▁polite	-5988
▁sweaty	-5989
▁werent	-5990
▁bicycle	-5991
▁biology	-5992
▁comment	-5993
▁concern	-5994
▁corrupt	-5995
▁decades	-5996
▁disturb	-5997
▁fantasy	-5998
▁flipped	-5999
▁loyalty	-6000
▁needing	-6001
▁pointed	-6002
▁prevent	-6003
▁recipes	-6004
▁returns	-6005
▁skipped	-6006
▁stephen	-6007
▁sundays	-6008
▁swallow	-6009
▁whoever	-6010
▁answered	-6011
▁assuming	-6012
▁betrayed	-6013
▁ceremony	-6014
▁charging	-6015
▁convince	-6016
▁deadline	-6017
▁disagree	-6018
▁flirting	-6019
▁proposal	-6020
▁thorough	-6021
▁caribbean	-6022
▁classmate	-6023
▁companion	-6024
▁acceptance	-6025
▁compliment	-6026
▁conference	-6027
▁craigslist	-6028
▁dishwasher	-6029
▁fulfilling	-6030
▁photograph	-6031
▁devastating	-6032
▁improvement	-6033
▁malfunction	-6034
-)	-6035
rr	-6036
▁;	-6037
aff	-6038
cre	-6039
dom	-6040
haw	-6041
imm	-6042
lon	-6043
oma	-6044
sey	-6045
▁95	-6046
▁ew	-6047
▁pc	-6048
airy	-6049
amas	-6050
ists	-6051
term	-6052
uded	-6053
▁adn	-6054
▁lip	-6055
▁owl	-6056
appro	-6057
crats	-6058
icles	-6059
pleas	-6060
▁asks	-6061
▁bats	-6062
▁brew	-6063
▁buzz	-6064
▁cine	-6065
▁coin	-6066
▁disp	-6067
▁inch	-6068
▁lice	-6069
▁ours	-6070
▁puzz	-6071
▁seek	-6072
▁solo	-6073
▁spin	-6074
▁tied	-6075
▁vent	-6076
▁worn	-6077
itions	-6078
rished	-6079
▁aisle	-6080
▁craft	-6081
▁crypt	-6082
▁draft	-6083
▁flown	-6084
▁grump	-6085
▁honey	-6086
▁incid	-6087
▁juice	-6088
▁lover	-6089
▁metal	-6090
▁reass	-6091
▁rural	-6092
▁shout	-6093
▁snuck	-6094
▁solve	-6095
▁wrist	-6096
connect	-6097
▁accord	-6098
▁appear	-6099
▁batter	-6100
▁belief	-6101
▁driven	-6102
▁earned	-6103
▁flavor	-6104
▁forest	-6105
▁hassle	-6106
▁injury	-6107
▁island	-6108
▁kiddos	-6109
▁mutual	-6110
▁policy	-6111
▁recall	-6112
▁rented	-6113
▁sleeps	-6114
▁smelly	-6115
▁suffer	-6116
▁washed	-6117
▁zipper	-6118
ications	-6119
standing	-6120
▁begging	-6121
▁explore	-6122
▁happily	-6123
▁inspect	-6124
▁miracle	-6125
▁monster	-6126
▁outdoor	-6127
▁porsche	-6128
▁witness	-6129
▁divorced	-6130
▁humanity	-6131
▁register	-6132
▁reminder	-6133
▁repaired	-6134
▁candidate	-6135
▁continued	-6136
▁counselor	-6137
▁democrats	-6138
▁gathering	-6139
▁represent	-6140
▁spaghetti	-6141
▁disconnect	-6142
▁embarrased	-6143
▁essentials	-6144
▁originally	-6145
▁pleasantly	-6146
▁respectful	-6147
▁transplant	-6148
▁overwhelmed	-6149
▁instructions	-6150
▁organization	-6151
▁unbelievable	-6152
▁conversations	-6153
4.	-6154
ats	-6155
bur	-6156
cop	-6157
gee	-6158
gie	-6159
ihu	-6160
lin	-6161
omy	-6162
oni	-6163
zen	-6164
▁5.	-6165
?!?!	-6166
bble	-6167
ends	-6168
foot	-6169
ista	-6170
iter	-6171
sequ	-6172
then	-6173
west	-6174
▁13.	-6175
▁bac	-6176
▁chu	-6177
▁coy	-6178
▁cub	-6179
▁dos	-6180
▁ooh	-6181
▁raw	-6182
▁unw	-6183
bbing	-6184
etime	-6185
ician	-6186
ional	-6187
neath	-6188
paper	-6189
unken	-6190
▁brut	-6191
▁drew	-6192
▁jury	-6193
▁lame	-6194
▁macs	-6195
▁mini	-6196
▁nach	-6197
▁rede	-6198
▁rome	-6199
▁scot	-6200
▁slip	-6201
▁tuck	-6202
▁tuna	-6203
▁vegg	-6204
▁zomb	-6205
▁zone	-6206
ensive	-6207
ulture	-6208
▁awoke	-6209
▁carbs	-6210
▁chees	-6211
▁chihu	-6212
▁heads	-6213
▁incon	-6214
▁nause	-6215
▁occup	-6216
▁opens	-6217
▁phase	-6218
▁rains	-6219
▁rainy	-6220
▁shred	-6221
▁spain	-6222
▁steam	-6223
▁texts	-6224
▁actors	-6225
▁boxing	-6226
▁bumper	-6227
▁confir	-6228
▁costco	-6229
▁grumpy	-6230
▁humble	-6231
▁incomp	-6232
▁mature	-6233
▁necess	-6234
▁struck	-6235
▁turbul	-6236
▁assured	-6237
▁avoided	-6238
▁barista	-6239
▁bunnies	-6240
▁closest	-6241
▁consequ	-6242
▁consist	-6243
▁dieting	-6244
▁eagerly	-6245
▁mailman	-6246
▁mainten	-6247
▁objects	-6248
▁raising	-6249
▁affected	-6250
▁announce	-6251
▁backpack	-6252
▁belonged	-6253
▁carrying	-6254
▁chargers	-6255
▁misunder	-6256
▁montreal	-6257
▁projects	-6258
▁promises	-6259
▁romantic	-6260
▁toppings	-6261
▁treasure	-6262
▁warriors	-6263
▁australia	-6264
▁healthier	-6265
▁pepperoni	-6266
▁typically	-6267
▁aggravated	-6268
▁interstate	-6269
▁nightlight	-6270
▁officially	-6271
▁presenting	-6272
▁underneath	-6273
▁conditioning	-6274
▁successfully	-6275
▁compassionate	-6276
nn	-6277
ahu	-6278
ett	-6279
▁eb	-6280
aker	-6281
aped	-6282
inct	-6283
iors	-6284
kids	-6285
kill	-6286
ocur	-6287
▁cos	-6288
▁fri	-6289
▁hug	-6290
▁ine	-6291
▁lou	-6292
▁tie	-6293
▁wif	-6294
dered	-6295
erole	-6296
gebra	-6297
otein	-6298
ously	-6299
▁adul	-6300
▁bark	-6301
▁cafe	-6302
▁dorm	-6303
▁dove	-6304
▁funn	-6305
▁geor	-6306
▁intu	-6307
▁page	-6308
▁pole	-6309
▁punk	-6310
▁soph	-6311
▁woah	-6312
apping	-6313
immune	-6314
lliant	-6315
urally	-6316
▁chips	-6317
▁dairy	-6318
▁ditch	-6319
▁false	-6320
▁greed	-6321
▁guide	-6322
▁holds	-6323
▁incor	-6324
▁inher	-6325
▁jokes	-6326
▁noble	-6327
▁queen	-6328
▁signs	-6329
▁slice	-6330
▁title	-6331
▁trunk	-6332
ruction	-6333
▁bushes	-6334
▁comics	-6335
▁deeply	-6336
▁escape	-6337
▁estate	-6338
▁gossip	-6339
▁milest	-6340
▁miscar	-6341
▁mowing	-6342
▁newest	-6343
▁rolled	-6344
▁shakes	-6345
▁smells	-6346
▁theirs	-6347
▁volley	-6348
▁algebra	-6349
▁arguing	-6350
▁blocked	-6351
▁cleaner	-6352
▁compare	-6353
▁distant	-6354
▁intimid	-6355
▁justice	-6356
▁kittens	-6357
▁playoff	-6358
▁spooked	-6359
▁weights	-6360
▁blocking	-6361
▁chihuahu	-6362
▁creative	-6363
▁disheart	-6364
▁doorstep	-6365
▁dropping	-6366
▁extended	-6367
▁pharmacy	-6368
▁services	-6369
▁unlocked	-6370
▁brilliant	-6371
▁casserole	-6372
▁computers	-6373
▁cryptocur	-6374
▁interrupt	-6375
▁knowledge	-6376
▁preschool	-6377
▁religious	-6378
▁sensitive	-6379
▁traumatic	-6380
▁repeatedly	-6381
▁thoroughly	-6382
▁turbulence	-6383
▁volleyball	-6384
▁butterflies	-6385
▁disneyworld	-6386
▁infuriating	-6387
▁miscarriage	-6388
▁unnecessary	-6389
▁interviewing	-6390
▁disrespectful	-6391
ov	-6392
sa	-6393
ata	-6394
del	-6395
eve	-6396
ooo	-6397
rud	-6398
▁si	-6399
▁ut	-6400
aire	-6401
anky	-6402
ateg	-6403
free	-6404
gots	-6405
iver	-6406
laws	-6407
rate	-6408
▁bru	-6409
▁cpa	-6410
▁dod	-6411
▁gum	-6412
▁lan	-6413
▁nar	-6414
▁unc	-6415
▁vit	-6416
aries	-6417
bucks	-6418
ching	-6419
isted	-6420
while	-6421
▁fold	-6422
▁gang	-6423
▁hunt	-6424
▁john	-6425
▁lamp	-6426
▁mate	-6427
▁nood	-6428
▁pros	-6429
▁rink	-6430
▁sake	-6431
▁salt	-6432
▁thie	-6433
▁thou	-6434
▁ugly	-6435
▁wide	-6436
▁wire	-6437
▁wolf	-6438
▁wond	-6439
encies	-6440
▁beans	-6441
▁bully	-6442
▁bunny	-6443
▁ducks	-6444
▁equip	-6445
▁hates	-6446
▁legos	-6447
▁soooo	-6448
▁spook	-6449
▁valed	-6450
▁browns	-6451
▁choked	-6452
▁cranky	-6453
▁famous	-6454
▁favour	-6455
▁intrud	-6456
▁plates	-6457
▁retake	-6458
▁shaken	-6459
▁shrimp	-6460
▁skinny	-6461
▁spaces	-6462
▁stream	-6463
▁upside	-6464
fficient	-6465
ictorian	-6466
▁assumed	-6467
▁bullied	-6468
▁courses	-6469
▁culture	-6470
▁drunken	-6471
▁effects	-6472
▁errands	-6473
▁fathers	-6474
▁jackpot	-6475
▁maggots	-6476
▁pajamas	-6477
▁plumber	-6478
▁protein	-6479
▁settled	-6480
▁stocked	-6481
▁surreal	-6482
▁arriving	-6483
▁diabetes	-6484
▁elevator	-6485
▁exchange	-6486
▁incident	-6487
▁incompet	-6488
▁kindness	-6489
▁mornings	-6490
▁musician	-6491
▁someones	-6492
▁sticking	-6493
▁touching	-6494
▁tracking	-6495
▁wrecking	-6496
▁naturally	-6497
▁poisoning	-6498
▁promising	-6499
▁starbucks	-6500
▁submitted	-6501
▁discipline	-6502
▁disturbing	-6503
▁inspection	-6504
▁babysitting	-6505
▁photographs	-6506
▁replacement	-6507
▁transmission	-6508
▁valedictorian	-6509
.,	-6510
chi	-6511
his	-6512
hus	-6513
ras	-6514
rex	-6515
zok	-6516
▁aa	-6517
▁ls	-6518
▁mt	-6519
▁ot	-6520
▁uk	-6521
adem	-6522
agna	-6523
iami	-6524
iana	-6525
ibes	-6526
inst	-6527
life	-6528
osen	-6529
udes	-6530
vert	-6531
▁bou	-6532
▁fib	-6533
▁flo	-6534
▁igu	-6535
▁jar	-6536
▁kim	-6537
▁mob	-6538
▁nut	-6539
▁oof	-6540
▁pho	-6541
▁rav	-6542
▁sed	-6543
ators	-6544
bbies	-6545
gment	-6546
inton	-6547
itled	-6548
morse	-6549
ories	-6550
renal	-6551
water	-6552
▁$400	-6553
▁curb	-6554
▁dust	-6555
▁goin	-6556
▁muse	-6557
▁pace	-6558
▁weap	-6559
▁wing	-6560
mother	-6561
▁among	-6562
▁angel	-6563
▁april	-6564
▁aston	-6565
▁aware	-6566
▁burnt	-6567
▁cooks	-6568
▁costs	-6569
▁insan	-6570
▁miami	-6571
▁mommy	-6572
▁pyrex	-6573
▁quilt	-6574
▁rocks	-6575
▁staff	-6576
▁vibes	-6577
essions	-6578
repared	-6579
▁academ	-6580
▁apples	-6581
▁artist	-6582
▁attemp	-6583
▁biting	-6584
▁bungee	-6585
▁burrit	-6586
▁chewed	-6587
▁clowns	-6588
▁consol	-6589
▁digest	-6590
▁hidden	-6591
▁hiring	-6592
▁killer	-6593
▁millen	-6594
▁panama	-6595
▁perman	-6596
▁relive	-6597
▁swerve	-6598
▁trophy	-6599
▁waiter	-6600
mination	-6601
▁address	-6602
▁adrenal	-6603
▁antique	-6604
▁backing	-6605
▁carried	-6606
▁catfish	-6607
▁compete	-6608
▁devoted	-6609
▁efforts	-6610
▁hallway	-6611
▁kissing	-6612
▁lasagna	-6613
▁lecture	-6614
▁planted	-6615
▁refuses	-6616
▁remorse	-6617
▁roaches	-6618
▁session	-6619
▁talents	-6620
▁variety	-6621
▁veggies	-6622
▁addicted	-6623
▁blankets	-6624
▁carefree	-6625
▁critters	-6626
▁feedback	-6627
▁judgment	-6628
▁saddened	-6629
▁scariest	-6630
▁smelling	-6631
▁swimsuit	-6632
▁treating	-6633
▁vomiting	-6634
▁cockroach	-6635
▁contribut	-6636
▁correctly	-6637
▁customers	-6638
▁decorated	-6639
▁enjoyable	-6640
▁equipment	-6641
▁household	-6642
▁infection	-6643
▁newspaper	-6644
▁overslept	-6645
▁receiving	-6646
▁challenges	-6647
▁contacting	-6648
▁individual	-6649
▁skateboard	-6650
▁commercials	-6651
▁destination	-6652
▁emergencies	-6653
▁interviewer	-6654
▁perspective	-6655
▁difficulties	-6656
▁grandmothers	-6657
/2	-6658
cu	-6659
ds	-6660
did	-6661
mes	-6662
met	-6663
rac	-6664
roo	-6665
▁26	-6666
▁hm	-6667
aith	-6668
amel	-6669
ario	-6670
beat	-6671
face	-6672
fume	-6673
gile	-6674
olve	-6675
omet	-6676
ruct	-6677
umst	-6678
word	-6679
▁bbq	-6680
▁dim	-6681
▁eve	-6682
▁feb	-6683
▁jew	-6684
▁log	-6685
▁ner	-6686
▁pra	-6687
▁tap	-6688
▁unt	-6689
▁vir	-6690
agues	-6691
aware	-6692
child	-6693
hetic	-6694
inist	-6695
inity	-6696
insaw	-6697
ishes	-6698
olves	-6699
uting	-6700
▁asso	-6701
▁brit	-6702
▁circ	-6703
▁clog	-6704
▁dies	-6705
▁enem	-6706
▁gall	-6707
▁jeep	-6708
▁lion	-6709
▁mice	-6710
▁oooh	-6711
▁outl	-6712
▁radi	-6713
▁scra	-6714
▁sits	-6715
▁synd	-6716
▁taxi	-6717
▁west	-6718
agging	-6719
istics	-6720
loaded	-6721
mption	-6722
opilot	-6723
raging	-6724
ration	-6725
tering	-6726
weight	-6727
▁$1000	-6728
▁antsy	-6729
▁cloud	-6730
▁debts	-6731
▁funds	-6732
▁hasnt	-6733
▁lemon	-6734
▁pilot	-6735
▁pulls	-6736
▁scout	-6737
▁skirt	-6738
▁tailg	-6739
▁tempt	-6740
aithful	-6741
however	-6742
working	-6743
▁annoys	-6744
▁boston	-6745
▁breeze	-6746
▁crisis	-6747
▁denied	-6748
▁dented	-6749
▁docile	-6750
▁exotic	-6751
▁forced	-6752
▁former	-6753
▁german	-6754
▁joking	-6755
▁juggle	-6756
▁kimchi	-6757
▁marked	-6758
▁museum	-6759
▁orange	-6760
▁poured	-6761
▁progra	-6762
▁secure	-6763
▁spooky	-6764
▁throws	-6765
▁timing	-6766
▁unlike	-6767
▁useful	-6768
▁bugging	-6769
▁earning	-6770
▁fragile	-6771
▁grilled	-6772
▁jobless	-6773
▁longest	-6774
▁mansion	-6775
▁massive	-6776
▁midterm	-6777
▁perfume	-6778
▁regrets	-6779
▁rooting	-6780
▁sadness	-6781
▁trainer	-6782
▁traumat	-6783
▁uniform	-6784
▁admitted	-6785
▁appalled	-6786
▁behaving	-6787
▁chainsaw	-6788
▁chickens	-6789
▁childish	-6790
▁grandson	-6791
▁increase	-6792
▁infected	-6793
▁instinct	-6794
▁needless	-6795
▁remained	-6796
▁scenario	-6797
▁shameful	-6798
▁stronger	-6799
▁autopilot	-6800
▁chihuahua	-6801
▁competing	-6802
▁creatures	-6803
▁developed	-6804
▁diagnosis	-6805
▁incorrect	-6806
▁memorable	-6807
▁surprises	-6808
▁colleagues	-6809
▁convenient	-6810
▁increasing	-6811
▁influenced	-6812
▁redemption	-6813
▁registered	-6814
▁unfaithful	-6815
▁communicate	-6816
▁thunderstorms	-6817
!"	-6818
-1	-6819
ba	-6820
ht	-6821
▁#	-6822
cat	-6823
eem	-6824
esh	-6825
fir	-6826
ipt	-6827
que	-6828
rad	-6829
zzy	-6830
▁28	-6831
▁33	-6832
▁ly	-6833
aren	-6834
dies	-6835
iger	-6836
inte	-6837
rees	-6838
were	-6839
▁4.0	-6840
▁bum	-6841
▁dug	-6842
▁ivy	-6843
▁lim	-6844
▁rev	-6845
▁unz	-6846
amond	-6847
atory	-6848
crast	-6849
crete	-6850
eding	-6851
field	-6852
going	-6853
icals	-6854
iches	-6855
olina	-6856
uries	-6857
▁$20.	-6858
▁blog	-6859
▁cans	-6860
▁depl	-6861
▁ears	-6862
▁fits	-6863
▁fuel	-6864
▁horn	-6865
▁pops	-6866
▁scan	-6867
▁slim	-6868
▁tack	-6869
▁tens	-6870
ansion	-6871
igning	-6872
itable	-6873
season	-6874
▁actor	-6875
▁boots	-6876
▁broad	-6877
▁brush	-6878
▁chess	-6879
▁clubs	-6880
▁daddy	-6881
▁faced	-6882
▁fears	-6883
▁fraud	-6884
▁genet	-6885
▁grows	-6886
▁heirl	-6887
▁herbs	-6888
▁hoard	-6889
▁legal	-6890
▁louis	-6891
▁minim	-6892
▁moves	-6893
▁rates	-6894
▁route	-6895
▁scene	-6896
▁shelf	-6897
▁sides	-6898
▁spots	-6899
▁stars	-6900
▁towel	-6901
▁valid	-6902
▁walks	-6903
▁woken	-6904
▁wrest	-6905
▁yummy	-6906
aughter	-6907
lifting	-6908
ounting	-6909
▁$1,000	-6910
▁allows	-6911
▁associ	-6912
▁bitter	-6913
▁bracel	-6914
▁campus	-6915
▁collap	-6916
▁counts	-6917
▁enjoys	-6918
▁fellow	-6919
▁guests	-6920
▁inches	-6921
▁inspir	-6922
▁landsc	-6923
▁latest	-6924
▁lizard	-6925
▁matern	-6926
▁monkey	-6927
▁nachos	-6928
▁nicest	-6929
▁olives	-6930
▁pastor	-6931
▁poorly	-6932
▁racist	-6933
▁remote	-6934
▁resist	-6935
▁scores	-6936
▁sneaky	-6937
▁spends	-6938
▁status	-6939
▁strand	-6940
▁strzok	-6941
▁submit	-6942
▁sweets	-6943
▁tshirt	-6944
▁tucked	-6945
venience	-6946
▁allergy	-6947
▁breakup	-6948
▁cartoon	-6949
▁clogged	-6950
▁diamond	-6951
▁display	-6952
▁enraged	-6953
▁freakin	-6954
▁freezer	-6955
▁greatly	-6956
▁hobbies	-6957
▁inappro	-6958
▁jogging	-6959
▁peoples	-6960
▁periods	-6961
▁require	-6962
mployment	-6963
▁attended	-6964
▁bragging	-6965
▁carolina	-6966
▁concrete	-6967
▁cornhole	-6968
▁coverage	-6969
▁demanded	-6970
▁entitled	-6971
▁hahahaha	-6972
▁intruder	-6973
▁japanese	-6974
▁knocking	-6975
▁motivate	-6976
▁pleasure	-6977
▁procrast	-6978
▁products	-6979
▁reported	-6980
▁reunited	-6981
▁salesman	-6982
▁unzipped	-6983
▁batteries	-6984
▁blessings	-6985
▁buildings	-6986
▁exhausted	-6987
▁expansion	-6988
▁gardening	-6989
▁grandkids	-6990
▁headaches	-6991
▁intuition	-6992
▁investing	-6993
▁messaging	-6994
▁milestone	-6995
▁operation	-6996
▁preseason	-6997
▁realistic	-6998
▁therapist	-6999
▁accounting	-7000
▁candidates	-7001
▁commitment	-7002
▁strawberry	-7003
▁transition	-7004
▁challenging	-7005
▁recognition	-7006
▁consequences	-7007
▁occasionally	-7008
▁pancreatitis	-7009
▁inappropriate	-7010
▁cryptocurrency	-7011
!.	-7012
av	-7013
ij	-7014
of	-7015
py	-7016
sk	-7017
bec	-7018
gus	-7019
har	-7020
kea	-7021
llo	-7022
lor	-7023
ray	-7024
sty	-7025
bull	-7026
gets	-7027
iers	-7028
itsu	-7029
lleg	-7030
maid	-7031
nite	-7032
odes	-7033
▁90'	-7034
▁dip	-7035
▁fry	-7036
▁hom	-7037
▁jam	-7038
▁lux	-7039
▁nes	-7040
▁soo	-7041
alian	-7042
althy	-7043
ckets	-7044
craft	-7045
elity	-7046
getic	-7047
inary	-7048
lanta	-7049
shine	-7050
usion	-7051
▁2019	-7052
▁eyed	-7053
▁heav	-7054
▁hook	-7055
▁ikea	-7056
▁liqu	-7057
▁mart	-7058
▁mode	-7059
▁neut	-7060
▁obed	-7061
▁peak	-7062
▁phew	-7063
▁puke	-7064
▁redo	-7065
▁swar	-7066
▁toll	-7067
adillo	-7068
mptoms	-7069
veland	-7070
▁ambul	-7071
▁autom	-7072
▁auton	-7073
▁cents	-7074
▁clock	-7075
▁clums	-7076
▁drain	-7077
▁etern	-7078
▁faces	-7079
▁fibro	-7080
▁filed	-7081
▁frank	-7082
▁freel	-7083
▁graph	-7084
▁harsh	-7085
▁hellp	-7086
▁hyper	-7087
▁illeg	-7088
▁image	-7089
▁locks	-7090
▁oddly	-7091
▁pains	-7092
▁patio	-7093
▁print	-7094
▁rally	-7095
▁reall	-7096
▁recru	-7097
▁river	-7098
▁rooms	-7099
▁slack	-7100
▁snugg	-7101
▁sober	-7102
▁swift	-7103
▁unner	-7104
▁vitam	-7105
▁weigh	-7106
adillac	-7107
▁batman	-7108
▁brutal	-7109
▁bubble	-7110
▁camper	-7111
▁chubby	-7112
▁dealer	-7113
▁deduct	-7114
▁deploy	-7115
▁dining	-7116
▁fondly	-7117
▁haters	-7118
▁hotdog	-7119
▁hugged	-7120
▁liking	-7121
▁nursed	-7122
▁prayed	-7123
▁princi	-7124
▁refres	-7125
▁silver	-7126
▁soaked	-7127
▁tackle	-7128
▁tipped	-7129
▁waters	-7130
▁wishes	-7131
pleasant	-7132
▁atlanta	-7133
▁bullets	-7134
▁coolest	-7135
▁created	-7136
▁dragons	-7137
▁escaped	-7138
▁guarant	-7139
▁italian	-7140
▁magical	-7141
▁midwest	-7142
▁mustang	-7143
▁remeber	-7144
▁remodel	-7145
▁sincere	-7146
▁stormed	-7147
▁suprise	-7148
▁trapped	-7149
▁upgrade	-7150
▁useless	-7151
▁warrant	-7152
umstances	-7153
▁balloons	-7154
▁cadillac	-7155
▁creating	-7156
▁episodes	-7157
▁gunshots	-7158
▁husbands	-7159
▁included	-7160
▁insanely	-7161
▁leftover	-7162
▁occupied	-7163
▁politics	-7164
▁requires	-7165
▁resident	-7166
▁roadkill	-7167
▁solution	-7168
▁sparring	-7169
▁storming	-7170
▁stumbled	-7171
▁sunshine	-7172
▁symptoms	-7173
▁answering	-7174
▁armadillo	-7175
▁christian	-7176
▁cleveland	-7177
▁influence	-7178
▁interests	-7179
▁rejection	-7180
▁repeating	-7181
▁separated	-7182
▁adrenaline	-7183
▁collecting	-7184
▁counseling	-7185
▁mosquitoes	-7186
▁reasonable	-7187
▁washington	-7188
▁assignments	-7189
▁incompetent	-7190
▁researching	-7191
▁tournaments	-7192
▁particularly	-7193
▁circumstances	-7194
▁communication	-7195
▁determination	-7196
60	-7197
9.	-7198
.".	-7199
acu	-7200
cal	-7201
ral	-7202
ran	-7203
▁ny	-7204
▁oy	-7205
anny	-7206
bast	-7207
bike	-7208
bled	-7209
char	-7210
chup	-7211
cube	-7212
eddy	-7213
eeze	-7214
fred	-7215
nuts	-7216
oooo	-7217
ties	-7218
▁80'	-7219
▁coz	-7220
▁joe	-7221
▁paw	-7222
▁pod	-7223
▁scu	-7224
▁sue	-7225
▁sum	-7226
▁sup	-7227
▁tub	-7228
▁zip	-7229
build	-7230
eries	-7231
every	-7232
fredo	-7233
gling	-7234
ibiot	-7235
matic	-7236
oored	-7237
orter	-7238
rings	-7239
ronic	-7240
think	-7241
which	-7242
▁....	-7243
▁aged	-7244
▁audi	-7245
▁bent	-7246
▁caut	-7247
▁craz	-7248
▁cuts	-7249
▁grey	-7250
▁hint	-7251
▁horr	-7252
▁hose	-7253
▁hugs	-7254
▁leap	-7255
▁lump	-7256
▁plug	-7257
▁pudd	-7258
▁sang	-7259
▁sets	-7260
▁vice	-7261
▁weed	-7262
alling	-7263
ancing	-7264
aughty	-7265
iances	-7266
lights	-7267
▁brief	-7268
▁cases	-7269
▁colon	-7270
▁comic	-7271
▁conte	-7272
▁crawl	-7273
▁curse	-7274
▁curve	-7275
▁dates	-7276
▁dealt	-7277
▁devil	-7278
▁error	-7279
▁hillb	-7280
▁jacks	-7281
▁jello	-7282
▁knees	-7283
▁newer	-7284
▁paris	-7285
▁prett	-7286
▁refer	-7287
▁teens	-7288
▁trade	-7289
▁tutor	-7290
bastian	-7291
olences	-7292
▁advise	-7293
▁author	-7294
▁beings	-7295
▁branch	-7296
▁bullet	-7297
▁button	-7298
▁castle	-7299
▁cereal	-7300
▁cinema	-7301
▁comedy	-7302
▁cooler	-7303
▁coyote	-7304
▁descri	-7305
▁engage	-7306
▁gotcha	-7307
▁grudge	-7308
▁horses	-7309
▁iguana	-7310
▁karate	-7311
▁pacing	-7312
▁remove	-7313
▁resour	-7314
▁rushed	-7315
▁slower	-7316
▁source	-7317
▁thirty	-7318
▁upsets	-7319
▁yearly	-7320
▁bathing	-7321
▁candies	-7322
▁caramel	-7323
▁claimed	-7324
▁clinton	-7325
▁compens	-7326
▁concent	-7327
▁degrees	-7328
▁digging	-7329
▁donated	-7330
▁drowned	-7331
▁excuses	-7332
▁expense	-7333
▁explode	-7334
▁falcons	-7335
▁fasting	-7336
▁floored	-7337
▁january	-7338
▁ketchup	-7339
▁landing	-7340
▁leaking	-7341
▁naughty	-7342
▁pitbull	-7343
▁plastic	-7344
▁qualify	-7345
▁raccoon	-7346
▁ripping	-7347
▁seasons	-7348
▁snuggle	-7349
▁sprayed	-7350
▁wasting	-7351
▁antibiot	-7352
▁cautious	-7353
▁criminal	-7354
▁dirtbike	-7355
▁document	-7356
▁earrings	-7357
▁entirely	-7358
▁flooding	-7359
▁gamecube	-7360
▁grandmas	-7361
▁heirloom	-7362
▁ignoring	-7363
▁jealousy	-7364
▁meetings	-7365
▁overchar	-7366
▁panicked	-7367
▁partying	-7368
▁quitting	-7369
▁recovery	-7370
▁sickened	-7371
especially	-7372
▁allergies	-7373
▁doughnuts	-7374
▁hamburger	-7375
▁introduce	-7376
▁neglected	-7377
▁passenger	-7378
▁replacing	-7379
▁sebastian	-7380
▁snowboard	-7381
▁temporary	-7382
▁thousands	-7383
▁vegetable	-7384
▁affordable	-7385
▁appliances	-7386
▁autoimmune	-7387
▁chocolates	-7388
▁decorating	-7389
▁grandchild	-7390
▁instrument	-7391
▁investment	-7392
▁meaningful	-7393
▁playground	-7394
▁refreshing	-7395
▁relaxation	-7396
▁sandwiches	-7397
▁statistics	-7398
▁traditions	-7399
▁unprepared	-7400
▁appropriate	-7401
▁cockroaches	-7402
▁condolences	-7403
▁generations	-7404
▁recommended	-7405
▁thunderstorm	-7406
▁congratulation	-7407
",	-7408
,"	-7409
?"	-7410
iu	-7411
pm	-7412
afe	-7413
asp	-7414
cil	-7415
ein	-7416
ept	-7417
fin	-7418
lph	-7419
rer	-7420
see	-7421
ula	-7422
▁2,	-7423
ases	-7424
gain	-7425
load	-7426
mors	-7427
rome	-7428
ttes	-7429
▁16,	-7430
▁400	-7431
▁:-)	-7432
▁arc	-7433
▁dun	-7434
▁fle	-7435
▁gap	-7436
▁irs	-7437
▁jiu	-7438
▁nab	-7439
▁ore	-7440
▁que	-7441
▁sac	-7442
▁tan	-7443
adium	-7444
eezed	-7445
hetto	-7446
imony	-7447
licop	-7448
omore	-7449
orate	-7450
point	-7451
ppers	-7452
stick	-7453
unker	-7454
▁ache	-7455
▁airl	-7456
▁anon	-7457
▁ants	-7458
▁arts	-7459
▁ebay	-7460
▁ewww	-7461
▁hmmm	-7462
▁jugg	-7463
▁mand	-7464
▁nike	-7465
▁peel	-7466
▁phob	-7467
▁sens	-7468
▁sung	-7469
▁trap	-7470
▁verb	-7471
▁vict	-7472
▁wand	-7473
▁ward	-7474
ainted	-7475
ighted	-7476
uctant	-7477
▁$2000	-7478
▁aside	-7479
▁banks	-7480
▁boxer	-7481
▁chefs	-7482
▁cliff	-7483
▁domin	-7484
▁drums	-7485
▁fever	-7486
▁flush	-7487
▁gains	-7488
▁gears	-7489
▁joint	-7490
▁licen	-7491
▁medal	-7492
▁neuro	-7493
▁novel	-7494
▁olive	-7495
▁poker	-7496
▁roads	-7497
▁seven	-7498
▁stunk	-7499
▁subst	-7500
▁toast	-7501
▁venom	-7502
▁wheat	-7503
▁worms	-7504
entions	-7505
inating	-7506
lection	-7507
▁attach	-7508
▁banana	-7509
▁beauty	-7510
▁calmed	-7511
▁checks	-7512
▁crowds	-7513
▁cursed	-7514
▁discou	-7515
▁doggie	-7516
▁doomed	-7517
▁gallon	-7518
▁ghetto	-7519
▁greedy	-7520
▁infant	-7521
▁insult	-7522
▁lasted	-7523
▁mashed	-7524
▁murder	-7525
▁overfl	-7526
▁planet	-7527
▁possum	-7528
▁profit	-7529
▁signal	-7530
▁singer	-7531
▁steady	-7532
▁supper	-7533
▁supply	-7534
▁trials	-7535
▁undies	-7536
▁unsafe	-7537
▁videog	-7538
▁winner	-7539
▁wisdom	-7540
▁yellow	-7541
▁zombie	-7542
licopter	-7543
ourished	-7544
▁beaming	-7545
▁benefit	-7546
▁burning	-7547
▁candles	-7548
▁contain	-7549
▁costume	-7550
▁cubicle	-7551
▁details	-7552
▁massage	-7553
▁monthly	-7554
▁mustard	-7555
▁olympic	-7556
▁painted	-7557
▁racking	-7558
▁renewed	-7559
▁section	-7560
▁smacked	-7561
▁stadium	-7562
▁studios	-7563
▁tearing	-7564
▁tempted	-7565
▁warming	-7566
▁wrapped	-7567
▁activity	-7568
▁administ	-7569
▁bleeding	-7570
▁checkout	-7571
▁concerts	-7572
▁equipped	-7573
▁facility	-7574
▁figuring	-7575
▁fortnite	-7576
▁gigantic	-7577
▁lipstick	-7578
▁meantime	-7579
▁notified	-7580
▁provider	-7581
▁refunded	-7582
▁shipping	-7583
▁syndrome	-7584
▁traveled	-7585
▁wondered	-7586
▁ambulance	-7587
▁borrowing	-7588
▁breathing	-7589
▁chemicals	-7590
▁complaint	-7591
▁disappear	-7592
▁inherited	-7593
▁maternity	-7594
▁occasions	-7595
▁performed	-7596
▁reluctant	-7597
▁requested	-7598
▁resources	-7599
▁sophomore	-7600
▁testimony	-7601
▁anticipate	-7602
▁astonished	-7603
▁cigarettes	-7604
▁confronted	-7605
▁connection	-7606
▁helicopter	-7607
▁interrupts	-7608
▁leadership	-7609
▁overweight	-7610
▁performing	-7611
▁regardless	-7612
▁satisfying	-7613
▁unpleasant	-7614
▁politicians	-7615
▁construction	-7616
▁inconvenient	-7617
▁intimidating	-7618
▁unemployment	-7619
▁accomplishments	-7620
,.	-7621
7.	-7622
gl	-7623
got	-7624
hhh	-7625
ica	-7626
mod	-7627
pse	-7628
rup	-7629
sut	-7630
ubl	-7631
ura	-7632
urg	-7633
▁31	-7634
▁64	-7635
bits	-7636
feed	-7637
iams	-7638
ilad	-7639
phan	-7640
rics	-7641
tles	-7642
▁!!!	-7643
▁$40	-7644
▁350	-7645
▁ada	-7646
▁der	-7647
▁los	-7648
▁pad	-7649
▁rap	-7650
▁sle	-7651
asses	-7652
conut	-7653
iques	-7654
liner	-7655
opard	-7656
pting	-7657
reece	-7658
rooms	-7659
steps	-7660
thats	-7661
▁$600	-7662
▁ashe	-7663
▁bail	-7664
▁beta	-7665
▁data	-7666
▁emer	-7667
▁fifa	-7668
▁gull	-7669
▁guts	-7670
▁kart	-7671
▁kong	-7672
▁laws	-7673
▁maln	-7674
▁mama	-7675
▁matt	-7676
▁mule	-7677
▁odds	-7678
▁prec	-7679
▁rash	-7680
▁snot	-7681
▁thir	-7682
▁tony	-7683
▁twin	-7684
▁unhe	-7685
▁util	-7686
▁virt	-7687
▁wooh	-7688
iously	-7689
shield	-7690
ucture	-7691
verted	-7692
▁civil	-7693
▁confl	-7694
▁cough	-7695
▁diner	-7696
▁enemy	-7697
▁evacu	-7698
▁fails	-7699
▁grace	-7700
▁hadnt	-7701
▁india	-7702
▁jewel	-7703
▁jumps	-7704
▁kicks	-7705
▁leads	-7706
▁liber	-7707
▁lungs	-7708
▁mines	-7709
▁moldy	-7710
▁neare	-7711
▁packs	-7712
▁picky	-7713
▁renov	-7714
▁retri	-7715
▁roast	-7716
▁robin	-7717
▁robot	-7718
▁sixth	-7719
▁smack	-7720
▁spill	-7721
▁stere	-7722
▁stret	-7723
▁unfam	-7724
▁voted	-7725
▁werew	-7726
▁whoop	-7727
instein	-7728
▁bodies	-7729
▁canned	-7730
▁chosen	-7731
▁decade	-7732
▁desire	-7733
▁drawer	-7734
▁fought	-7735
▁frozen	-7736
▁greece	-7737
▁habits	-7738
▁immune	-7739
▁insect	-7740
▁keeper	-7741
▁levels	-7742
▁medium	-7743
▁melted	-7744
▁myster	-7745
▁parach	-7746
▁phobia	-7747
▁playst	-7748
▁pricey	-7749
▁proced	-7750
▁puddle	-7751
▁raises	-7752
▁raviol	-7753
▁resume	-7754
▁roomie	-7755
▁satisf	-7756
▁solved	-7757
▁sticks	-7758
▁streak	-7759
▁supple	-7760
▁tablet	-7761
▁tested	-7762
▁triath	-7763
▁triple	-7764
▁unfold	-7765
▁valent	-7766
▁vision	-7767
▁alfredo	-7768
▁arrival	-7769
▁attempt	-7770
▁bigfoot	-7771
▁british	-7772
▁cheerle	-7773
▁cleared	-7774
▁clients	-7775
▁coconut	-7776
▁crawled	-7777
▁finance	-7778
▁freeway	-7779
▁manners	-7780
▁outfits	-7781
▁outlook	-7782
▁pickles	-7783
▁receipt	-7784
▁shorter	-7785
▁smarter	-7786
▁speaker	-7787
▁suspect	-7788
▁unusual	-7789
▁various	-7790
▁absolute	-7791
▁adulting	-7792
▁advanced	-7793
▁autonomy	-7794
▁boarding	-7795
▁bracelet	-7796
▁bullying	-7797
▁cartoons	-7798
▁constant	-7799
▁daunting	-7800
▁deceased	-7801
▁drowning	-7802
▁economic	-7803
▁entering	-7804
▁grinding	-7805
▁grounded	-7806
▁gullible	-7807
▁interact	-7808
▁mistaken	-7809
▁overtime	-7810
▁playoffs	-7811
▁presence	-7812
▁skipping	-7813
▁soulmate	-7814
▁speeches	-7815
▁squirrel	-7816
▁stranded	-7817
▁williams	-7818
▁winnings	-7819
ifications	-7820
▁asheville	-7821
▁birthdays	-7822
▁carefully	-7823
▁desperate	-7824
▁economics	-7825
▁favourite	-7826
▁footsteps	-7827
▁housework	-7828
▁investors	-7829
▁parenting	-7830
▁permanent	-7831
▁published	-7832
▁sleepover	-7833
▁spiderman	-7834
▁structure	-7835
▁employment	-7836
▁experiment	-7837
▁suspicious	-7838
▁treatments	-7839
▁unfamiliar	-7840
▁windshield	-7841
▁electricity	-7842
▁intentional	-7843
▁investigate	-7844
▁malnourished	-7845
▁administration	-7846
12	-7847
nb	-7848
▁)	-7849
bic	-7850
bon	-7851
ded	-7852
gia	-7853
iel	-7854
ini	-7855
mat	-7856
rif	-7857
sem	-7858
▁75	-7859
▁od	-7860
copa	-7861
esus	-7862
flip	-7863
home	-7864
inic	-7865
izes	-7866
kind	-7867
last	-7868
lide	-7869
mine	-7870
oths	-7871
otle	-7872
owed	-7873
rels	-7874
rica	-7875
rict	-7876
stop	-7877
uced	-7878
umel	-7879
vest	-7880
▁1/2	-7881
▁10.	-7882
▁abc	-7883
▁ain	-7884
▁alw	-7885
▁ceo	-7886
▁fab	-7887
▁glo	-7888
▁idk	-7889
▁jog	-7890
▁lob	-7891
▁pin	-7892
▁rum	-7893
▁tay	-7894
▁vul	-7895
▁wid	-7896
▁wii	-7897
ament	-7898
andem	-7899
ansas	-7900
ffled	-7901
force	-7902
grown	-7903
ister	-7904
power	-7905
style	-7906
ublic	-7907
▁brat	-7908
▁chir	-7909
▁core	-7910
▁dare	-7911
▁disl	-7912
▁entr	-7913
▁epic	-7914
▁fash	-7915
▁inev	-7916
▁iwas	-7917
▁jord	-7918
▁loaf	-7919
▁lugg	-7920
▁mask	-7921
▁owns	-7922
▁peru	-7923
▁rats	-7924
▁rose	-7925
▁rust	-7926
▁sadd	-7927
▁stab	-7928
▁symp	-7929
▁tote	-7930
▁toug	-7931
▁unac	-7932
▁vill	-7933
idency	-7934
ounded	-7935
pelled	-7936
ranged	-7937
▁asian	-7938
▁bears	-7939
▁bikes	-7940
▁bouqu	-7941
▁bride	-7942
▁carts	-7943
▁chili	-7944
▁delay	-7945
▁films	-7946
▁gamer	-7947
▁grasp	-7948
▁ideal	-7949
▁ident	-7950
▁ignor	-7951
▁impat	-7952
▁keyed	-7953
▁lanai	-7954
▁lifes	-7955
▁loser	-7956
▁maker	-7957
▁nanny	-7958
▁newly	-7959
▁plain	-7960
▁rapid	-7961
▁salon	-7962
▁sorta	-7963
▁spell	-7964
▁vivid	-7965
▁wifes	-7966
▁africa	-7967
▁anonym	-7968
▁aspect	-7969
▁begged	-7970
▁belive	-7971
▁bucket	-7972
▁clinic	-7973
▁cooper	-7974
▁coping	-7975
▁garlic	-7976
▁heater	-7977
▁ladder	-7978
▁larger	-7979
▁lifted	-7980
▁marvel	-7981
▁mighty	-7982
▁mobile	-7983
▁ordeal	-7984
▁orders	-7985
▁owning	-7986
▁peeing	-7987
▁pickup	-7988
▁prompt	-7989
▁scient	-7990
▁shaved	-7991
▁shoved	-7992
▁silent	-7993
▁spaced	-7994
▁stereo	-7995
▁tandem	-7996
▁taylor	-7997
▁toyota	-7998
▁warned	-7999
▁weekly	-8000
▁wooden	-8001
feedback	-8002
ulations	-8003
▁$10,000	-8004
▁approve	-8005
▁baffled	-8006
▁bargain	-8007
▁charges	-8008
▁confide	-8009
▁cozumel	-8010
▁elephan	-8011
▁fashion	-8012
▁fearful	-8013
▁georgia	-8014
▁heavily	-8015
▁include	-8016
▁initial	-8017
▁jeopard	-8018
▁luggage	-8019
▁monitor	-8020
▁muscles	-8021
▁mystery	-8022
▁pooping	-8023
▁precaut	-8024
▁privacy	-8025
▁proceed	-8026
▁ruining	-8027
▁smiling	-8028
▁sneezed	-8029
▁thanked	-8030
▁waterme	-8031
▁wouldve	-8032
seriously	-8033
▁audience	-8034
▁backflip	-8035
▁brighter	-8036
▁chipotle	-8037
▁choosing	-8038
▁comments	-8039
▁congress	-8040
▁costumes	-8041
▁craziest	-8042
▁darkness	-8043
▁deciding	-8044
▁destruct	-8045
▁eternity	-8046
▁humidity	-8047
▁juggling	-8048
▁managers	-8049
▁official	-8050
▁password	-8051
▁refusing	-8052
▁republic	-8053
▁sickness	-8054
▁spilling	-8055
▁unpacked	-8056
▁weighing	-8057
▁affection	-8058
▁amazingly	-8059
▁collector	-8060
▁demanding	-8061
▁documents	-8062
▁explained	-8063
▁inspected	-8064
▁musicians	-8065
▁pointless	-8066
▁regretted	-8067
▁relieving	-8068
▁responded	-8069
▁specially	-8070
▁supercopa	-8071
▁background	-8072
▁disability	-8073
▁discussing	-8074
▁installing	-8075
▁intentions	-8076
▁punishment	-8077
▁ultimately	-8078
▁conditioner	-8079
▁desperately	-8080
▁documentary	-8081
▁humiliating	-8082
▁imagination	-8083
▁introverted	-8084
▁outstanding	-8085
▁programming	-8086
▁technically	-8087
**	-8088
30	-8089
pr	-8090
za	-8091
aps	-8092
aur	-8093
azz	-8094
ffy	-8095
fic	-8096
fty	-8097
gon	-8098
ius	-8099
lls	-8100
nia	-8101
ole	-8102
vac	-8103
van	-8104
yon	-8105
▁!!	-8106
▁29	-8107
▁3,	-8108
▁8.	-8109
▁;)	-8110
▁ms	-8111
▁pi	-8112
atar	-8113
athy	-8114
ears	-8115
ette	-8116
gedy	-8117
girl	-8118
igan	-8119
izon	-8120
kele	-8121
mill	-8122
ndon	-8123
obal	-8124
opsy	-8125
part	-8126
rary	-8127
roid	-8128
sure	-8129
than	-8130
yeah	-8131
▁1.3	-8132
▁50-	-8133
▁bul	-8134
▁cin	-8135
▁gau	-8136
▁hut	-8137
▁jur	-8138
▁lam	-8139
▁lex	-8140
▁ped	-8141
▁pim	-8142
▁rod	-8143
▁shr	-8144
▁ske	-8145
▁tam	-8146
▁tob	-8147
▁tru	-8148
alyst	-8149
arian	-8150
assic	-8151
eping	-8152
ested	-8153
gover	-8154
icies	-8155
iland	-8156
ingly	-8157
isher	-8158
issan	-8159
leans	-8160
orted	-8161
pered	-8162
terns	-8163
▁adds	-8164
▁apps	-8165
▁arch	-8166
▁bele	-8167
▁boil	-8168
▁clut	-8169
▁coat	-8170
▁comf	-8171
▁dipl	-8172
▁dive	-8173
▁gord	-8174
▁hulk	-8175
▁iron	-8176
▁jeez	-8177
▁lego	-8178
▁lick	-8179
▁lous	-8180
▁mild	-8181
▁nois	-8182
▁obst	-8183
▁poem	-8184
▁pure	-8185
▁root	-8186
▁sats	-8187
▁slot	-8188
▁sofa	-8189
▁spra	-8190
▁summ	-8191
▁tape	-8192
▁thai	-8193
▁wage	-8194
celess	-8195
celona	-8196
ington	-8197
isting	-8198
kelele	-8199
mation	-8200
scares	-8201
udated	-8202
uggets	-8203
▁angri	-8204
▁aunts	-8205
▁boats	-8206
▁boils	-8207
▁bones	-8208
▁categ	-8209
▁condo	-8210
▁coord	-8211
▁cries	-8212
▁dodge	-8213
▁doggy	-8214
▁dolph	-8215
▁dosnt	-8216
▁fuzzy	-8217
▁girlf	-8218
▁harry	-8219
▁heals	-8220
▁indic	-8221
▁jesus	-8222
▁journ	-8223
▁juicy	-8224
▁kings	-8225
▁lanes	-8226
▁lathe	-8227
▁march	-8228
▁mates	-8229
▁micro	-8230
▁ohhhh	-8231
▁petty	-8232
▁pipes	-8233
▁prest	-8234
▁recie	-8235
▁refin	-8236
▁reply	-8237
▁repul	-8238
▁reset	-8239
▁roses	-8240
▁rover	-8241
▁shaky	-8242
▁sheep	-8243
▁stare	-8244
▁sting	-8245
▁teddy	-8246
▁tense	-8247
▁traps	-8248
▁twent	-8249
▁upper	-8250
▁wiped	-8251
nerable	-8252
ordered	-8253
rasound	-8254
▁anyhow	-8255
▁biopsy	-8256
▁bounce	-8257
▁brides	-8258
▁bunker	-8259
▁chills	-8260
▁clumsy	-8261
▁create	-8262
▁creeps	-8263
▁defend	-8264
▁detect	-8265
▁enroll	-8266
▁ensure	-8267
▁esteem	-8268
▁exited	-8269
▁global	-8270
▁grinds	-8271
▁growth	-8272
▁hating	-8273
▁honors	-8274
▁leaked	-8275
▁london	-8276
▁nissan	-8277
▁overhe	-8278
▁overre	-8279
▁pillow	-8280
▁potter	-8281
▁puzzle	-8282
▁resent	-8283
▁restar	-8284
▁sacrif	-8285
▁sauces	-8286
▁sleepy	-8287
▁stared	-8288
▁weapon	-8289
ceptable	-8290
▁airline	-8291
▁athlete	-8292
▁banking	-8293
▁beaches	-8294
▁boosted	-8295
▁breathe	-8296
▁burgers	-8297
▁calming	-8298
▁chronic	-8299
▁circles	-8300
▁commend	-8301
▁cruises	-8302
▁decline	-8303
▁emerald	-8304
▁factory	-8305
▁federal	-8306
▁fitness	-8307
▁funding	-8308
▁gameboy	-8309
▁hillary	-8310
▁hosting	-8311
▁jewelry	-8312
▁neutral	-8313
▁noodles	-8314
▁orleans	-8315
▁princip	-8316
▁ravioli	-8317
▁shotgun	-8318
▁stepdad	-8319
▁tragedy	-8320
▁ukelele	-8321
▁unaware	-8322
▁updated	-8323
▁adopting	-8324
▁approval	-8325
▁commands	-8326
▁contrary	-8327
▁crashing	-8328
▁crushing	-8329
▁director	-8330
▁disgrace	-8331
▁dripping	-8332
▁employed	-8333
▁entrance	-8334
▁hungover	-8335
▁infinity	-8336
▁insisted	-8337
▁jurassic	-8338
▁magician	-8339
▁occurred	-8340
▁offering	-8341
▁olympics	-8342
▁partners	-8343
▁policies	-8344
▁punished	-8345
▁reliving	-8346
▁shelters	-8347
▁shredded	-8348
▁sneaking	-8349
▁sounding	-8350
▁speakers	-8351
▁thailand	-8352
▁vitamins	-8353
▁warcraft	-8354
▁wherever	-8355
▁adjusting	-8356
▁assistant	-8357
▁attacking	-8358
▁attempted	-8359
▁barcelona	-8360
▁breweries	-8361
▁certified	-8362
▁deserving	-8363
▁embarrass	-8364
▁graudated	-8365
▁hairstyle	-8366
▁licensing	-8367
▁mechanics	-8368
▁notifying	-8369
▁overwatch	-8370
▁priceless	-8371
▁proposing	-8372
▁referring	-8373
▁regarding	-8374
▁saturdays	-8375
▁statement	-8376
▁unhealthy	-8377
▁unnerving	-8378
▁contractor	-8379
▁deductible	-8380
▁flashlight	-8381
▁indicators	-8382
▁jumpscares	-8383
▁lightening	-8384
▁permission	-8385
▁researched	-8386
▁smartphone	-8387
▁temptation	-8388
▁ultrasound	-8389
▁unemployed	-8390
▁vulnerable	-8391
▁watermelon	-8392
▁wellington	-8393
▁anticipated	-8394
▁concentrate	-8395
▁description	-8396
▁differently	-8397
▁emotionally	-8398
▁grandparent	-8399
▁inspiration	-8400
▁maintenance	-8401
▁supplements	-8402
▁uncertainty	-8403
▁applications	-8404
▁unacceptable	-8405
▁neurofeedback	-8406
!)	-8407
20	-8408
ox	-8409
▁q	-8410
400	-8411
abl	-8412
aky	-8413
iti	-8414
▁cs	-8415
▁gn	-8416
assy	-8417
away	-8418
endy	-8419
erce	-8420
fall	-8421
felt	-8422
geon	-8423
hael	-8424
hake	-8425
husi	-8426
illa	-8427
ilor	-8428
inds	-8429
lift	-8430
loaf	-8431
long	-8432
make	-8433
oudy	-8434
shop	-8435
ulty	-8436
vage	-8437
▁24/	-8438
▁95%	-8439
▁ack	-8440
▁asp	-8441
▁ast	-8442
▁dau	-8443
▁fas	-8444
▁hyd	-8445
▁jon	-8446
▁kfc	-8447
▁maz	-8448
▁mmm	-8449
▁sew	-8450
▁syn	-8451
▁wha	-8452
!!!!!	-8453
about	-8454
agull	-8455
argot	-8456
atley	-8457
enail	-8458
osity	-8459
osure	-8460
ourse	-8461
prise	-8462
sting	-8463
stood	-8464
there	-8465
uster	-8466
years	-8467
▁abdu	-8468
▁alab	-8469
▁bart	-8470
▁bean	-8471
▁begg	-8472
▁blat	-8473
▁boot	-8474
▁capt	-8475
▁cave	-8476
▁crew	-8477
▁deny	-8478
▁ener	-8479
▁fade	-8480
▁fist	-8481
▁gymn	-8482
▁hong	-8483
▁limb	-8484
▁maps	-8485
▁melt	-8486
▁menu	-8487
▁outs	-8488
▁owes	-8489
▁rank	-8490
▁rebo	-8491
▁rope	-8492
▁soap	-8493
▁sout	-8494
▁stal	-8495
▁stun	-8496
▁ther	-8497
▁thus	-8498
▁tong	-8499
▁vote	-8500
arable	-8501
atched	-8502
ensely	-8503
ertive	-8504
estern	-8505
ffered	-8506
kshake	-8507
rified	-8508
risome	-8509
rowave	-8510
urking	-8511
▁advoc	-8512
▁alert	-8513
▁bacon	-8514
▁balls	-8515
▁beats	-8516
▁blond	-8517
▁blows	-8518
▁bowls	-8519
▁careg	-8520
▁china	-8521
▁cling	-8522
▁cocky	-8523
▁compe	-8524
▁creek	-8525
▁cycle	-8526
▁drawn	-8527
▁dryer	-8528
▁dumps	-8529
▁earns	-8530
▁ewwww	-8531
▁exhib	-8532
▁falls	-8533
▁files	-8534
▁frame	-8535
▁hairs	-8536
▁hardy	-8537
▁humor	-8538
▁karma	-8539
▁lexus	-8540
▁maxim	-8541
▁mowed	-8542
▁mushy	-8543
▁notor	-8544
▁obama	-8545
▁picks	-8546
▁piggy	-8547
▁seats	-8548
▁shade	-8549
▁shave	-8550
▁sized	-8551
▁skype	-8552
▁slick	-8553
▁spark	-8554
▁spite	-8555
▁stove	-8556
▁tends	-8557
▁union	-8558
▁wears	-8559
aburger	-8560
lligent	-8561
sitting	-8562
▁arcade	-8563
▁cheesy	-8564
▁circle	-8565
▁cloths	-8566
▁cloudy	-8567
▁cringe	-8568
▁debris	-8569
▁disown	-8570
▁dissap	-8571
▁duties	-8572
▁fierce	-8573
▁flower	-8574
▁fruits	-8575
▁genius	-8576
▁girlfi	-8577
▁grieve	-8578
▁laughs	-8579
▁mugged	-8580
▁permit	-8581
▁popped	-8582
▁prized	-8583
▁ridden	-8584
▁robber	-8585
▁russia	-8586
▁sailor	-8587
▁smoked	-8588
▁stares	-8589
▁tricky	-8590
▁virgin	-8591
▁washer	-8592
▁waterp	-8593
daughter	-8594
▁analyst	-8595
▁article	-8596
▁artific	-8597
▁boiling	-8598
▁busiest	-8599
▁closely	-8600
▁coincid	-8601
▁crystal	-8602
▁damages	-8603
▁deepest	-8604
▁digital	-8605
▁diploma	-8606
▁dispute	-8607
▁dresser	-8608
▁dresses	-8609
▁enthusi	-8610
▁excites	-8611
▁fitting	-8612
▁frankly	-8613
▁genetic	-8614
▁handled	-8615
▁honored	-8616
▁lobster	-8617
▁locally	-8618
▁michael	-8619
▁nagging	-8620
▁outback	-8621
▁pitcher	-8622
▁rewards	-8623
▁roaming	-8624
▁seagull	-8625
▁shouted	-8626
▁silence	-8627
▁strings	-8628
▁supreme	-8629
▁toenail	-8630
▁western	-8631
conscious	-8632
▁accounts	-8633
▁avoiding	-8634
▁bouncing	-8635
▁conflict	-8636
▁dreaming	-8637
▁electron	-8638
▁excitied	-8639
▁fighters	-8640
▁forecast	-8641
▁frequent	-8642
▁growling	-8643
▁hopeless	-8644
▁injuries	-8645
▁intended	-8646
▁meatloaf	-8647
▁packages	-8648
▁playlist	-8649
▁resulted	-8650
▁searched	-8651
▁slacking	-8652
▁strapped	-8653
▁suffered	-8654
▁terrific	-8655
▁ultimate	-8656
▁underdog	-8657
▁assertive	-8658
▁cellphone	-8659
▁conscious	-8660
▁corrected	-8661
▁delighted	-8662
▁depending	-8663
▁digestive	-8664
▁discovery	-8665
▁elections	-8666
▁energetic	-8667
▁honorable	-8668
▁impatient	-8669
▁irritates	-8670
▁meanwhile	-8671
▁microwave	-8672
▁milkshake	-8673
▁offensive	-8674
▁overdraft	-8675
▁petrified	-8676
▁popsicles	-8677
▁presenter	-8678
▁prettiest	-8679
▁principal	-8680
▁procedure	-8681
▁providing	-8682
▁scrapbook	-8683
▁shoulders	-8684
▁squirrels	-8685
▁suspended	-8686
▁tornadoes	-8687
▁worrisome	-8688
▁adventures	-8689
▁bridesmaid	-8690
▁developing	-8691
▁encouraged	-8692
▁exhausting	-8693
▁negatively	-8694
▁presidency	-8695
▁recognized	-8696
▁stepmother	-8697
▁technician	-8698
▁appreciates	-8699
▁backpacking	-8700
▁convenience	-8701
▁instruments	-8702
▁intelligent	-8703
▁millionaire	-8704
▁overcharged	-8705
▁playstation	-8706
▁possessions	-8707
▁republicans	-8708
▁whataburger	-8709
▁congratulate	-8710
▁independence	-8711
▁participated	-8712
▁intentionally	-8713
▁misunderstood	-8714
40	-8715
6.	-8716
vo	-8717
00.	-8718
aby	-8719
dly	-8720
few	-8721
ita	-8722
lat	-8723
lim	-8724
nox	-8725
sur	-8726
uba	-8727
vey	-8728
yet	-8729
zil	-8730
▁3-	-8731
▁99	-8732
ales	-8733
aska	-8734
atly	-8735
aunt	-8736
bies	-8737
cted	-8738
even	-8739
ffed	-8740
fire	-8741
gown	-8742
have	-8743
heim	-8744
hill	-8745
iate	-8746
iles	-8747
ipol	-8748
iser	-8749
itly	-8750
itos	-8751
izer	-8752
luse	-8753
robe	-8754
ryst	-8755
sery	-8756
some	-8757
tart	-8758
uing	-8759
urge	-8760
yyyy	-8761
▁196	-8762
▁25.	-8763
▁600	-8764
▁aaa	-8765
▁aim	-8766
▁bay	-8767
▁blu	-8768
▁dom	-8769
▁dys	-8770
▁eth	-8771
▁gat	-8772
▁gay	-8773
▁gir	-8774
▁hiv	-8775
▁jit	-8776
▁lem	-8777
▁nas	-8778
▁ops	-8779
▁rus	-8780
▁sri	-8781
▁tah	-8782
▁wad	-8783
anked	-8784
comes	-8785
daddy	-8786
estic	-8787
grass	-8788
igner	-8789
inate	-8790
jitsu	-8791
lucky	-8792
mates	-8793
namon	-8794
ounce	-8795
rated	-8796
sions	-8797
thank	-8798
usely	-8799
ustin	-8800
venge	-8801
▁$800	-8802
▁2016	-8803
▁acce	-8804
▁alum	-8805
▁benn	-8806
▁bleh	-8807
▁chap	-8808
▁claw	-8809
▁dash	-8810
▁dili	-8811
▁frog	-8812
▁guns	-8813
▁hust	-8814
▁jsut	-8815
▁link	-8816
▁magn	-8817
▁mich	-8818
▁oral	-8819
▁owed	-8820
▁perk	-8821
▁piss	-8822
▁plag	-8823
▁plot	-8824
▁plum	-8825
▁rack	-8826
▁seed	-8827
▁sole	-8828
▁surp	-8829
▁swam	-8830
▁tang	-8831
▁trim	-8832
▁unpl	-8833
▁void	-8834
▁whos	-8835
......	-8836
angler	-8837
entive	-8838
icting	-8839
illies	-8840
ipolar	-8841
itudes	-8842
lasses	-8843
mbling	-8844
orette	-8845
porate	-8846
ptical	-8847
▁$5000	-8848
▁100%.	-8849
▁accur	-8850
▁alien	-8851
▁alter	-8852
▁backs	-8853
▁becky	-8854
▁begun	-8855
▁booze	-8856
▁charm	-8857
▁diary	-8858
▁eight	-8859
▁entry	-8860
▁equal	-8861
▁exter	-8862
▁froze	-8863
▁hints	-8864
▁insul	-8865
▁invit	-8866
▁irate	-8867
▁kryst	-8868
▁moder	-8869
▁niger	-8870
▁nomin	-8871
▁obnox	-8872
▁ooooh	-8873
▁oreos	-8874
▁ornam	-8875
▁peeve	-8876
▁revol	-8877
▁ricky	-8878
▁ruins	-8879
▁saves	-8880
▁scale	-8881
▁schoo	-8882
▁scott	-8883
▁seper	-8884
▁sheet	-8885
▁shook	-8886
▁solar	-8887
▁spicy	-8888
▁stoop	-8889
▁swept	-8890
▁tiger	-8891
▁topic	-8892
▁trial	-8893
▁wendy	-8894
▁yearn	-8895
idelity	-8896
minator	-8897
olution	-8898
rupting	-8899
▁acknow	-8900
▁amazes	-8901
▁austin	-8902
▁avatar	-8903
▁border	-8904
▁brazil	-8905
▁buried	-8906
▁canyon	-8907
▁copper	-8908
▁cuddle	-8909
▁danced	-8910
▁deadly	-8911
▁debate	-8912
▁freaks	-8913
▁freeze	-8914
▁funnel	-8915
▁gravel	-8916
▁kidney	-8917
▁kissed	-8918
▁liquor	-8919
▁lyrics	-8920
▁narrow	-8921
▁offers	-8922
▁parade	-8923
▁pencil	-8924
▁pimple	-8925
▁prayer	-8926
▁proved	-8927
▁rental	-8928
▁seller	-8929
▁shriek	-8930
▁slices	-8931
▁steaks	-8932
▁stocks	-8933
▁strict	-8934
▁sucker	-8935
▁suspen	-8936
▁thesis	-8937
▁theyre	-8938
▁trepid	-8939
▁unlock	-8940
▁unreal	-8941
atically	-8942
surprise	-8943
watching	-8944
▁alabama	-8945
▁attacks	-8946
▁billion	-8947
▁bonuses	-8948
▁bottles	-8949
▁brushed	-8950
▁burrito	-8951
▁charger	-8952
▁clutter	-8953
▁condoms	-8954
▁context	-8955
▁coupons	-8956
▁defense	-8957
▁discuss	-8958
▁easiest	-8959
▁familly	-8960
▁feeding	-8961
▁formula	-8962
▁gaining	-8963
▁gardens	-8964
▁gymnast	-8965
▁housing	-8966
▁illegal	-8967
▁leather	-8968
▁listens	-8969
▁mileage	-8970
▁nearest	-8971
▁needles	-8972
▁nursery	-8973
▁offense	-8974
▁persons	-8975
▁portion	-8976
▁psyched	-8977
▁quicker	-8978
▁recluse	-8979
▁resolve	-8980
▁revenge	-8981
▁saddest	-8982
▁salvage	-8983
▁scolded	-8984
▁seattle	-8985
▁snapped	-8986
▁splurge	-8987
▁stalled	-8988
▁studies	-8989
▁surface	-8990
▁swarmed	-8991
▁swimmer	-8992
▁torture	-8993
▁typical	-8994
▁unlucky	-8995
ointments	-8996
▁academic	-8997
▁cinnamon	-8998
▁cravings	-8999
▁diligent	-9000
▁escargot	-9001
▁facetime	-9002
▁grilling	-9003
▁hairball	-9004
▁krystals	-9005
▁lecturer	-9006
▁messages	-9007
▁michigan	-9008
▁notebook	-9009
▁ordinary	-9010
▁passions	-9011
▁portable	-9012
▁realizes	-9013
▁scotland	-9014
▁seagulls	-9015
▁stopping	-9016
▁stripped	-9017
▁superior	-9018
▁switched	-9019
▁virginia	-9020
▁wardrobe	-9021
▁wrangler	-9022
▁accepting	-9023
▁associate	-9024
▁attitudes	-9025
▁backwards	-9026
▁bartender	-9027
▁bodybuild	-9028
▁cigarette	-9029
▁collected	-9030
▁comforted	-9031
▁confessed	-9032
▁louisiana	-9033
▁mandatory	-9034
▁materials	-9035
▁nightgown	-9036
▁obedience	-9037
▁obnoxious	-9038
▁profusely	-9039
▁qualities	-9040
▁radiation	-9041
▁recession	-9042
▁remaining	-9043
▁technical	-9044
▁triathlon	-9045
▁undermine	-9046
▁valentine	-9047
▁videogame	-9048
▁willpower	-9049
▁acceptable	-9050
▁additional	-9051
▁artificial	-9052
▁delivering	-9053
▁downloaded	-9054
▁pancreatic	-9055
▁positivity	-9056
▁production	-9057
▁reassuring	-9058
▁reflecting	-9059
▁remodeling	-9060
▁specialist	-9061
▁sunglasses	-9062
▁vegetarian	-9063
▁apologizing	-9064
▁connections	-9065
▁coordinated	-9066
▁decorations	-9067
▁frustration	-9068
▁hillbillies	-9069
▁prestigious	-9070
▁temporarily	-9071
▁threatening	-9072
▁bachelorette	-9073
▁discouraging	-9074
▁disheartened	-9075
▁interrupting	-9076
▁traumatizing	-9077
64	-9078
ex	-9079
tr	-9080
?!?	-9081
any	-9082
bud	-9083
dam	-9084
ggy	-9085
hoh	-9086
iki	-9087
ipp	-9088
mom	-9089
ock	-9090
oof	-9091
ost	-9092
ott	-9093
pon	-9094
rip	-9095
top	-9096
ulp	-9097
war	-9098
why	-9099
▁#1	-9100
▁bt	-9101
▁ct	-9102
▁cv	-9103
▁dc	-9104
▁dv	-9105
▁gf	-9106
▁ou	-9107
▁pm	-9108
▁vi	-9109
abol	-9110
acco	-9111
ader	-9112
ager	-9113
aign	-9114
anas	-9115
bell	-9116
eing	-9117
elve	-9118
gled	-9119
hour	-9120
iche	-9121
inos	-9122
jack	-9123
kins	-9124
phia	-9125
plex	-9126
sage	-9127
ssom	-9128
urbs	-9129
your	-9130
▁12.	-9131
▁20$	-9132
▁20.	-9133
▁3.8	-9134
▁:))	-9135
▁alz	-9136
▁arr	-9137
▁awh	-9138
▁cit	-9139
▁cod	-9140
▁ecl	-9141
▁exe	-9142
▁gad	-9143
▁gag	-9144
▁hen	-9145
▁isp	-9146
▁jou	-9147
▁lil	-9148
▁naw	-9149
▁obl	-9150
▁ove	-9151
▁pow	-9152
▁pts	-9153
▁sar	-9154
▁sir	-9155
▁sox	-9156
▁twe	-9157
acles	-9158
aving	-9159
brary	-9160
eared	-9161
entle	-9162
final	-9163
grity	-9164
isure	-9165
mphis	-9166
mping	-9167
storm	-9168
super	-9169
▁95%.	-9170
▁adam	-9171
▁bapt	-9172
▁brag	-9173
▁buns	-9174
▁chow	-9175
▁culp	-9176
▁cups	-9177
▁cure	-9178
▁excl	-9179
▁fasc	-9180
▁genu	-9181
▁haul	-9182
▁hime	-9183
▁joys	-9184
▁jude	-9185
▁knit	-9186
▁luch	-9187
▁ment	-9188
▁mutt	-9189
▁nicu	-9190
▁outd	-9191
▁pall	-9192
▁prim	-9193
▁sate	-9194
▁scri	-9195
▁shit	-9196
▁sigh	-9197
▁swat	-9198
▁sync	-9199
▁ties	-9200
▁toot	-9201
▁tube	-9202
▁uhoh	-9203
▁vacc	-9204
▁viet	-9205
▁wold	-9206
▁wrap	-9207
▁yale	-9208
▁zeal	-9209
igator	-9210
igence	-9211
igible	-9212
irable	-9213
ishing	-9214
mental	-9215
prised	-9216
semble	-9217
taking	-9218
urgers	-9219
▁2000'	-9220
▁bever	-9221
▁blink	-9222
▁bogus	-9223
▁burgl	-9224
▁busch	-9225
▁canal	-9226
▁cigar	-9227
▁civic	-9228
▁coins	-9229
▁concl	-9230
▁curls	-9231
▁disgu	-9232
▁disse	-9233
▁drops	-9234
▁feces	-9235
▁fires	-9236
▁glove	-9237
▁goods	-9238
▁holes	-9239
▁homer	-9240
▁infom	-9241
▁jerry	-9242
▁jumpy	-9243
▁liver	-9244
▁minds	-9245
▁penny	-9246
▁peter	-9247
▁pursu	-9248
▁realy	-9249
▁rings	-9250
▁risky	-9251
▁shine	-9252
▁sites	-9253
▁spect	-9254
▁strep	-9255
▁surve	-9256
▁swell	-9257
▁tacos	-9258
▁teary	-9259
▁towns	-9260
▁twink	-9261
▁wagon	-9262
▁waist	-9263
▁wasps	-9264
because	-9265
sterdam	-9266
▁ankles	-9267
▁awards	-9268
▁aweful	-9269
▁backup	-9270
▁bitten	-9271
▁blonde	-9272
▁bugatt	-9273
▁cardio	-9274
▁chicks	-9275
▁cleans	-9276
▁closes	-9277
▁critic	-9278
▁dental	-9279
▁dramas	-9280
▁easter	-9281
▁endure	-9282
▁filthy	-9283
▁gamble	-9284
▁gentle	-9285
▁gloves	-9286
▁grease	-9287
▁harvey	-9288
▁height	-9289
▁hooked	-9290
▁modern	-9291
▁neices	-9292
▁overly	-9293
▁panick	-9294
▁purpos	-9295
▁raging	-9296
▁rumors	-9297
▁spayed	-9298
▁stones	-9299
▁strike	-9300
▁swings	-9301
▁territ	-9302
▁tongue	-9303
▁trains	-9304
▁twelve	-9305
▁twitch	-9306
▁uninte	-9307
▁values	-9308
▁worthy	-9309
▁alzheim	-9310
▁angrily	-9311
▁banging	-9312
▁bipolar	-9313
▁blossom	-9314
▁buzzing	-9315
▁century	-9316
▁chewing	-9317
▁commute	-9318
▁concept	-9319
▁confess	-9320
▁congrad	-9321
▁consult	-9322
▁creeped	-9323
▁culprit	-9324
▁feature	-9325
▁foolish	-9326
▁forgave	-9327
▁fruster	-9328
▁greater	-9329
▁honking	-9330
▁leisure	-9331
▁lending	-9332
▁library	-9333
▁loosing	-9334
▁memphis	-9335
▁napkins	-9336
▁placing	-9337
▁planner	-9338
▁prayers	-9339
▁quietly	-9340
▁relieve	-9341
▁renting	-9342
▁resting	-9343
▁sausage	-9344
▁scammed	-9345
▁scarred	-9346
▁scoring	-9347
▁seniors	-9348
▁showers	-9349
▁signing	-9350
▁stretch	-9351
▁suburbs	-9352
▁tapping	-9353
▁thieves	-9354
▁tobacco	-9355
▁tourist	-9356
▁trading	-9357
▁turtles	-9358
▁vietnam	-9359
▁whipped	-9360
▁zealand	-9361
▁advances	-9362
▁assemble	-9363
▁assisted	-9364
▁athletes	-9365
▁audition	-9366
▁broadway	-9367
▁calories	-9368
▁campaign	-9369
▁concerns	-9370
▁converse	-9371
▁deadbeat	-9372
▁deployed	-9373
▁dramatic	-9374
▁giggling	-9375
▁helpless	-9376
▁imagined	-9377
▁improved	-9378
▁inviting	-9379
▁jeopardy	-9380
▁lifetime	-9381
▁mturking	-9382
▁nauseous	-9383
▁priority	-9384
▁prospect	-9385
▁provided	-9386
▁recieved	-9387
▁recliner	-9388
▁scraping	-9389
▁severely	-9390
▁solitude	-9391
▁spoiling	-9392
▁survival	-9393
▁tomatoes	-9394
▁unlikely	-9395
▁warranty	-9396
▁youthful	-9397
girlfriend	-9398
▁affecting	-9399
▁alligator	-9400
▁amsterdam	-9401
▁anonymous	-9402
▁anxiously	-9403
▁blackjack	-9404
▁detention	-9405
▁elsewhere	-9406
▁generator	-9407
▁poisonous	-9408
▁retriever	-9409
▁scratches	-9410
▁severance	-9411
▁shootings	-9412
▁skeptical	-9413
▁socialize	-9414
▁stationed	-9415
▁strangely	-9416
▁streaming	-9417
▁struggles	-9418
▁waterpark	-9419
▁companions	-9420
▁completing	-9421
▁difficulty	-9422
▁hamburgers	-9423
▁healthcare	-9424
▁inevitable	-9425
▁infidelity	-9426
▁membership	-9427
▁organizing	-9428
▁preordered	-9429
▁pretending	-9430
▁properties	-9431
▁questioned	-9432
▁remorseful	-9433
▁restaraunt	-9434
▁waterslide	-9435
▁acknowledge	-9436
▁destructive	-9437
▁development	-9438
▁electronics	-9439
▁friendships	-9440
▁maintenence	-9441
▁necessarily	-9442
▁affectionate	-9443
▁bodybuilding	-9444
▁contributing	-9445
▁enthusiastic	-9446
▁exterminator	-9447
▁questionable	-9448
▁surroundings	-9449
▁entertainment	-9450
▁international	-9451
▁investigation	-9452
▁neighbourhood	-9453
▁congradulations	-9454
"?	-9455
di	-9456
hl	-9457
pg	-9458
sm	-9459
tv	-9460
▁~	-9461
aks	-9462
bag	-9463
bid	-9464
big	-9465
eor	-9466
eur	-9467
fle	-9468
hey	-9469
iac	-9470
oot	-9471
raq	-9472
reg	-9473
rum	-9474
run	-9475
zes	-9476
▁2-	-9477
▁27	-9478
▁36	-9479
▁65	-9480
▁7.	-9481
▁91	-9482
▁92	-9483
▁98	-9484
▁ii	-9485
▁ze	-9486
acam	-9487
alls	-9488
aned	-9489
angs	-9490
chef	-9491
copy	-9492
does	-9493
eria	-9494
esky	-9495
full	-9496
hear	-9497
iiii	-9498
iour	-9499
iven	-9500
loat	-9501
mbed	-9502
moil	-9503
otes	-9504
quer	-9505
rigu	-9506
ruly	-9507
shey	-9508
stra	-9509
sung	-9510
trip	-9511
udos	-9512
ulge	-9513
ussy	-9514
vity	-9515
vrol	-9516
with	-9517
▁15.	-9518
▁50%	-9519
▁80%	-9520
▁bam	-9521
▁ber	-9522
▁bob	-9523
▁btw	-9524
▁cuz	-9525
▁dna	-9526
▁eer	-9527
▁gou	-9528
▁gps	-9529
▁hav	-9530
▁heh	-9531
▁lin	-9532
▁luc	-9533
▁mam	-9534
▁nev	-9535
▁ram	-9536
▁rew	-9537
▁sav	-9538
▁sev	-9539
▁spa	-9540
▁sty	-9541
▁yoy	-9542
actus	-9543
ancer	-9544
arium	-9545
ategy	-9546
bbish	-9547
chain	-9548
ctica	-9549
first	-9550
geons	-9551
grand	-9552
hable	-9553
imate	-9554
inter	-9555
llite	-9556
never	-9557
ooper	-9558
still	-9559
▁2014	-9560
▁24/7	-9561
▁aven	-9562
▁bald	-9563
▁barn	-9564
▁bind	-9565
▁blur	-9566
▁bone	-9567
▁bris	-9568
▁caus	-9569
▁clar	-9570
▁code	-9571
▁crab	-9572
▁defe	-9573
▁ende	-9574
▁fate	-9575
▁fict	-9576
▁foul	-9577
▁fran	-9578
▁gulf	-9579
▁hamm	-9580
▁honk	-9581
▁hulu	-9582
▁iraq	-9583
▁jets	-9584
▁liar	-9585
▁ling	-9586
▁mens	-9587
▁mins	-9588
▁mush	-9589
▁nerd	-9590
▁nick	-9591
▁pean	-9592
▁sane	-9593
▁sant	-9594
▁sche	-9595
▁sees	-9596
▁sequ	-9597
▁snes	-9598
▁stit	-9599
▁subs	-9600
▁toss	-9601
▁tray	-9602
▁triv	-9603
▁tune	-9604
▁unbe	-9605
▁wipe	-9606
ailing	-9607
antial	-9608
cience	-9609
estion	-9610
ilites	-9611
inging	-9612
itated	-9613
lerant	-9614
ounter	-9615
placed	-9616
rained	-9617
reneur	-9618
soever	-9619
vrolet	-9620
▁2018.	-9621
▁50-50	-9622
▁adapt	-9623
▁anime	-9624
▁antar	-9625
▁belly	-9626
▁bites	-9627
▁carri	-9628
▁dared	-9629
▁diego	-9630
▁downs	-9631
▁dunno	-9632
▁fatig	-9633
▁gauge	-9634
▁genre	-9635
▁glued	-9636
▁gravy	-9637
▁grief	-9638
▁heres	-9639
▁immig	-9640
▁kudos	-9641
▁magaz	-9642
▁meets	-9643
▁moral	-9644
▁noisy	-9645
▁noone	-9646
▁orche	-9647
▁padre	-9648
▁pesky	-9649
▁pills	-9650
▁polar	-9651
▁prime	-9652
▁races	-9653
▁rapes	-9654
▁reloc	-9655
▁reput	-9656
▁resil	-9657
▁retro	-9658
▁royal	-9659
▁safer	-9660
▁shops	-9661
▁shown	-9662
▁sizes	-9663
▁stead	-9664
▁stunt	-9665
▁swore	-9666
▁tabby	-9667
▁trace	-9668
▁tread	-9669
▁tummy	-9670
▁undes	-9671
▁wentz	-9672
▁widow	-9673
acamole	-9674
athetic	-9675
ettling	-9676
▁alwasy	-9677
▁begins	-9678
▁blocks	-9679
▁bloody	-9680
▁bridge	-9681
▁cactus	-9682
▁carton	-9683
▁clingy	-9684
▁crimes	-9685
▁crunch	-9686
▁emails	-9687
▁entrep	-9688
▁extent	-9689
▁fenced	-9690
▁fishes	-9691
▁floors	-9692
▁fluffy	-9693
▁forecl	-9694
▁freely	-9695
▁gender	-9696
▁goldie	-9697
▁hermit	-9698
▁hunger	-9699
▁indoor	-9700
▁intend	-9701
▁kansas	-9702
▁litlle	-9703
▁loaded	-9704
▁mentor	-9705
▁messes	-9706
▁meteor	-9707
▁native	-9708
▁pajama	-9709
▁purple	-9710
▁racoon	-9711
▁reboot	-9712
▁redone	-9713
▁rehear	-9714
▁roster	-9715
▁safari	-9716
▁sailed	-9717
▁sheesh	-9718
▁slides	-9719
▁snotty	-9720
▁snowed	-9721
▁statue	-9722
▁studio	-9723
▁terror	-9724
▁thrive	-9725
▁uncles	-9726
▁unpred	-9727
▁unruly	-9728
▁update	-9729
▁urgent	-9730
vacation	-9731
▁angeles	-9732
▁artwork	-9733
▁beverly	-9734
▁braclet	-9735
▁bumping	-9736
▁cabinet	-9737
▁carpool	-9738
▁cheered	-9739
▁crapped	-9740
▁crucial	-9741
▁cursing	-9742
▁despair	-9743
▁drawers	-9744
▁dreamed	-9745
▁earthqu	-9746
▁enlight	-9747
▁fiction	-9748
▁graphic	-9749
▁greener	-9750
▁greeted	-9751
▁handles	-9752
▁hershey	-9753
▁honesty	-9754
▁horizon	-9755
▁ignores	-9756
▁jittery	-9757
▁journal	-9758
▁legends	-9759
▁network	-9760
▁notices	-9761
▁nuggets	-9762
▁opposed	-9763
▁overeat	-9764
▁overind	-9765
▁poptart	-9766
▁privile	-9767
▁replied	-9768
▁rescues	-9769
▁rubbing	-9770
▁samsung	-9771
▁scaredy	-9772
▁scenery	-9773
▁screams	-9774
▁skilled	-9775
▁summers	-9776
▁tension	-9777
▁turmoil	-9778
▁avengers	-9779
▁branches	-9780
▁burritos	-9781
▁cashiers	-9782
▁chatroom	-9783
▁clicking	-9784
▁consolid	-9785
▁cupboard	-9786
▁desserts	-9787
▁disorder	-9788
▁distress	-9789
▁division	-9790
▁educated	-9791
▁explains	-9792
▁features	-9793
▁floating	-9794
▁grossest	-9795
▁identity	-9796
▁jousting	-9797
▁keychain	-9798
▁majoring	-9799
▁majority	-9800
▁messaged	-9801
▁murdered	-9802
▁patterns	-9803
▁piercing	-9804
▁pitching	-9805
▁recovers	-9806
▁roadtrip	-9807
▁scolding	-9808
▁seasoned	-9809
▁smallest	-9810
▁snuggled	-9811
▁stitches	-9812
▁strategy	-9813
▁tailgate	-9814
▁tempting	-9815
▁unicycle	-9816
▁uniforms	-9817
▁washroom	-9818
▁weddings	-9819
▁wireless	-9820
▁achieving	-9821
▁assurance	-9822
▁behaviors	-9823
▁believing	-9824
▁chevrolet	-9825
▁confirmed	-9826
▁effective	-9827
▁efficient	-9828
▁employers	-9829
▁encounter	-9830
▁financing	-9831
▁girlfiend	-9832
▁guacamole	-9833
▁heartfelt	-9834
▁initially	-9835
▁landlords	-9836
▁millenial	-9837
▁misplaced	-9838
▁nominated	-9839
▁notorious	-9840
▁orchestra	-9841
▁policeman	-9842
▁positions	-9843
▁prevented	-9844
▁recruiter	-9845
▁remembers	-9846
▁satellite	-9847
▁sentiment	-9848
▁shortcake	-9849
▁spaceship	-9850
▁stability	-9851
▁swallowed	-9852
▁teammates	-9853
▁terrifies	-9854
▁troubling	-9855
▁whispered	-9856
▁workforce	-9857
▁antarctica	-9858
▁attachment	-9859
▁attendance	-9860
▁believable	-9861
▁cockroachs	-9862
▁competitor	-9863
▁conscience	-9864
▁intolerant	-9865
▁masterchef	-9866
▁mistakenly	-9867
▁overflowed	-9868
▁passengers	-9869
▁politician	-9870
▁positively	-9871
▁recovering	-9872
▁relatively	-9873
▁scientific	-9874
▁sufficient	-9875
▁unbearable	-9876
▁unsettling	-9877
▁whatsoever	-9878
▁antibiotics	-9879
▁consolation	-9880
▁criminology	-9881
▁differences	-9882
▁embarrasing	-9883
▁gouvernment	-9884
▁necessities	-9885
▁reconnected	-9886
▁reservation	-9887
▁substantial	-9888
▁temperature	-9889
▁announcement	-9890
▁appreciation	-9891
▁cheerleading	-9892
▁compensation	-9893
▁consistently	-9894
▁entrepreneur	-9895
▁receptionist	-9896
▁satisfaction	-9897
▁automatically	-9898
▁disheartening	-9899
!,	-9900
./	-9901
3,	-9902
bd	-9903
uf	-9904
ws	-9905
▁0	-9906
apy	-9907
bot	-9908
fil	-9909
ief	-9910
iju	-9911
lda	-9912
mao	-9913
nel	-9914
par	-9915
pre	-9916
put	-9917
sor	-9918
tub	-9919
vin	-9920
www	-9921
yes	-9922
▁7-	-9923
▁ax	-9924
▁bf	-9925
▁il	-9926
▁ky	-9927
▁lb	-9928
▁ll	-9929
▁mi	-9930
▁os	-9931
aint	-9932
alys	-9933
ards	-9934
aroo	-9935
buds	-9936
cery	-9937
chat	-9938
ciss	-9939
from	-9940
gger	-9941
half	-9942
hard	-9943
hent	-9944
hope	-9945
igns	-9946
inea	-9947
itas	-9948
llar	-9949
lose	-9950
mail	-9951
mend	-9952
mind	-9953
mosp	-9954
oded	-9955
oles	-9956
once	-9957
pass	-9958
pour	-9959
rase	-9960
roit	-9961
skis	-9962
stic	-9963
stit	-9964
talk	-9965
uase	-9966
vied	-9967
will	-9968
▁14.	-9969
▁17,	-9970
▁22.	-9971
▁25%	-9972
▁3.5	-9973
▁30.	-9974
▁50.	-9975
▁alp	-9976
▁aqu	-9977
▁bil	-9978
▁biz	-9979
▁cbd	-9980
▁dil	-9981
▁div	-9982
▁dor	-9983
▁fax	-9984
▁gee	-9985
▁kha	-9986
▁nhl	-9987
▁pis	-9988
▁rag	-9989
▁rea	-9990
▁rig	-9991
▁rub	-9992
▁tvs	-9993
▁vin	-9994
▁wsa	-9995
▁yrs	-9996
backs	-9997
bbles	-9998
being	-9999
cling	-10000
fight	-10001
godly	-10002
hache	-10003
heast	-10004
hobic	-10005
illis	-10006
itals	-10007
lding	-10008
liest	-10009
lings	-10010
loved	-10011
mmies	-10012
osaur	-10013
ouses	-10014
pical	-10015
rador	-10016
sorry	-10017
start	-10018
toise	-10019
ucing	-10020
ufact	-10021
vably	-10022
▁2008	-10023
▁2017	-10024
▁abcs	-10025
▁airb	-10026
▁avid	-10027
▁bday	-10028
▁buys	-10029
▁chug	-10030
▁coop	-10031
▁dope	-10032
▁drum	-10033
▁elim	-10034
▁ench	-10035
▁folk	-10036
▁goto	-10037
▁grat	-10038
▁gray	-10039
▁grid	-10040
▁herd	-10041
▁hott	-10042
▁jazz	-10043
▁june	-10044
▁kang	-10045
▁lmao	-10046
▁mary	-10047
▁meas	-10048
▁mole	-10049
▁moly	-10050
▁mout	-10051
▁mute	-10052
▁nash	-10053
▁neur	-10054
▁offs	-10055
▁othe	-10056
▁pens	-10057
▁pots	-10058
▁prem	-10059
▁prod	-10060
▁ramp	-10061
▁rapt	-10062
▁recy	-10063
▁reps	-10064
▁rept	-10065
▁rugs	-10066
▁scat	-10067
▁scor	-10068
▁scru	-10069
▁seas	-10070
▁shep	-10071
▁shin	-10072
▁slid	-10073
▁snag	-10074
▁stan	-10075
▁suic	-10076
▁unin	-10077
▁vows	-10078
▁ware	-10079
▁wary	-10080
▁whip	-10081
▁wifi	-10082
aching	-10083
alysis	-10084
cooked	-10085
enitly	-10086
essive	-10087
firend	-10088
ggling	-10089
hentic	-10090
iative	-10091
ijuana	-10092
lerate	-10093
ometry	-10094
racuse	-10095
screen	-10096
ustrop	-10097
versed	-10098
▁aback	-10099
▁bliss	-10100
▁bombs	-10101
▁butts	-10102
▁caked	-10103
▁charl	-10104
▁chats	-10105
▁chief	-10106
▁couth	-10107
▁crust	-10108
▁diets	-10109
▁dozen	-10110
▁drool	-10111
▁drugg	-10112
▁eclip	-10113
▁excel	-10114
▁farts	-10115
▁feast	-10116
▁figur	-10117
▁flust	-10118
▁flute	-10119
▁frogs	-10120
▁groom	-10121
▁heels	-10122
▁hitch	-10123
▁inthe	-10124
▁itchy	-10125
▁jones	-10126
▁kiddo	-10127
▁kidna	-10128
▁lifel	-10129
▁loses	-10130
▁lousy	-10131
▁merit	-10132
▁metho	-10133
▁naive	-10134
▁needy	-10135
▁nikes	-10136
▁noooo	-10137
▁optom	-10138
▁outta	-10139
▁overb	-10140
▁peice	-10141
▁poops	-10142
▁props	-10143
▁resid	-10144
▁rifle	-10145
▁rocky	-10146
▁sassy	-10147
▁snoop	-10148
▁stack	-10149
▁subar	-10150
▁thief	-10151
▁unrel	-10152
▁warms	-10153
▁yards	-10154
▁zelda	-10155
warming	-10156
▁ailing	-10157
▁alaska	-10158
▁argent	-10159
▁atmosp	-10160
▁backst	-10161
▁beggar	-10162
▁boards	-10163
▁bounds	-10164
▁brands	-10165
▁busier	-10166
▁claims	-10167
▁dancer	-10168
▁dances	-10169
▁deaths	-10170
▁defint	-10171
▁desert	-10172
▁dillis	-10173
▁duplex	-10174
▁establ	-10175
▁expert	-10176
▁facing	-10177
▁forces	-10178
▁fourth	-10179
▁freaky	-10180
▁george	-10181
▁gramma	-10182
▁guinea	-10183
▁heated	-10184
▁honked	-10185
▁hunted	-10186
▁images	-10187
▁instag	-10188
▁learnt	-10189
▁lining	-10190
▁locker	-10191
▁lonley	-10192
▁martin	-10193
▁metall	-10194
▁mickey	-10195
▁noodle	-10196
▁nurses	-10197
▁phrase	-10198
▁pickle	-10199
▁planes	-10200
▁potent	-10201
▁pranks	-10202
▁pursue	-10203
▁quoted	-10204
▁racial	-10205
▁ramsey	-10206
▁remake	-10207
▁resort	-10208
▁rising	-10209
▁router	-10210
▁scrape	-10211
▁serial	-10212
▁smiled	-10213
▁sooooo	-10214
▁sorted	-10215
▁sprain	-10216
▁square	-10217
▁stated	-10218
▁stings	-10219
▁tenant	-10220
▁themed	-10221
▁tommor	-10222
▁totaly	-10223
▁towels	-10224
▁unders	-10225
▁undone	-10226
▁united	-10227
▁voting	-10228
▁wisely	-10229
▁writer	-10230
otherapy	-10231
▁100,000	-10232
▁appears	-10233
▁bathtub	-10234
▁becuase	-10235
▁beloved	-10236
▁bending	-10237
▁bennett	-10238
▁bonding	-10239
▁bottled	-10240
▁bottoms	-10241
▁bruised	-10242
▁bugatti	-10243
▁busting	-10244
▁castles	-10245
▁conquer	-10246
▁cooling	-10247
▁counted	-10248
▁darkest	-10249
▁dashing	-10250
▁denying	-10251
▁detroit	-10252
▁dispose	-10253
▁dolphin	-10254
▁doritos	-10255
▁dragged	-10256
▁earbuds	-10257
▁earring	-10258
▁everyon	-10259
▁fainted	-10260
▁filling	-10261
▁filters	-10262
▁germany	-10263
▁getaway	-10264
▁hammock	-10265
▁hoarder	-10266
▁hotdogs	-10267
▁humbled	-10268
▁indiana	-10269
▁instant	-10270
▁insults	-10271
▁judging	-10272
▁kitties	-10273
▁martial	-10274
▁matched	-10275
▁matured	-10276
▁mouthed	-10277
▁narciss	-10278
▁neglect	-10279
▁nigeria	-10280
▁nonstop	-10281
▁outpour	-10282
▁overdue	-10283
▁peppers	-10284
▁plugged	-10285
▁praised	-10286
▁pressed	-10287
▁printed	-10288
▁quieter	-10289
▁restore	-10290
▁robbery	-10291
▁romance	-10292
▁rugrats	-10293
▁scaring	-10294
▁scraped	-10295
▁shadows	-10296
▁shadowy	-10297
▁singers	-10298
▁slowing	-10299
▁spaniel	-10300
▁spirits	-10301
▁spouses	-10302
▁squeeze	-10303
▁stabbed	-10304
▁stellar	-10305
▁strayed	-10306
▁studing	-10307
▁swerved	-10308
▁systems	-10309
▁terrier	-10310
▁thirsty	-10311
▁tracked	-10312
▁tremend	-10313
▁ungodly	-10314
▁venison	-10315
▁venture	-10316
▁victory	-10317
▁welding	-10318
▁aquarium	-10319
▁barefoot	-10320
▁blogging	-10321
▁brighten	-10322
▁chilling	-10323
▁competed	-10324
▁decorate	-10325
▁describe	-10326
▁devasted	-10327
▁dinosaur	-10328
▁diseases	-10329
▁einstein	-10330
▁eligible	-10331
▁estimate	-10332
▁evacuate	-10333
▁exploded	-10334
▁finalist	-10335
▁finishes	-10336
▁fulltime	-10337
▁goodluck	-10338
▁handsome	-10339
▁homesick	-10340
▁inspires	-10341
▁instance	-10342
▁interven	-10343
▁kangaroo	-10344
▁labrador	-10345
▁lunchbox	-10346
▁manufact	-10347
▁marrying	-10348
▁neurotic	-10349
▁noticing	-10350
▁obstacle	-10351
▁outcomes	-10352
▁pathetic	-10353
▁powerful	-10354
▁punching	-10355
▁pursuing	-10356
▁raccoons	-10357
▁reversed	-10358
▁roadside	-10359
▁sentence	-10360
▁smoothie	-10361
▁steaming	-10362
▁syracuse	-10363
▁tolerate	-10364
▁tortoise	-10365
▁trophies	-10366
▁twenties	-10367
▁upgraded	-10368
▁vaccines	-10369
▁vehicles	-10370
▁weakness	-10371
▁wrapping	-10372
▁addicting	-10373
▁admitting	-10374
▁alcoholic	-10375
▁apologise	-10376
▁behaviour	-10377
▁caregiver	-10378
▁chainsaws	-10379
▁cherished	-10380
▁childrens	-10381
▁claustrop	-10382
▁commuting	-10383
▁comparing	-10384
▁compelled	-10385
▁connected	-10386
▁corporate	-10387
▁defenitly	-10388
▁dillishaw	-10389
▁exception	-10390
▁flaunting	-10391
▁flustered	-10392
▁forgiving	-10393
▁functions	-10394
▁guarantee	-10395
▁increased	-10396
▁instincts	-10397
▁integrity	-10398
▁irritable	-10399
▁marijuana	-10400
▁nashville	-10401
▁overboard	-10402
▁parachute	-10403
▁performer	-10404
▁practices	-10405
▁publisher	-10406
▁purposely	-10407
▁rehearsed	-10408
▁restrooms	-10409
▁revolting	-10410
▁sandwhich	-10411
▁schedules	-10412
▁scratcher	-10413
▁seemingly	-10414
▁selection	-10415
▁sentences	-10416
▁sunscreen	-10417
▁surgeries	-10418
▁thrilling	-10419
▁toothache	-10420
▁treasured	-10421
▁treehouse	-10422
▁unloading	-10423
▁unpredict	-10424
▁wandering	-10425
▁warehouse	-10426
▁atmosphere	-10427
▁convincing	-10428
▁extensions	-10429
▁freelancer	-10430
▁generosity	-10431
▁gymnastics	-10432
▁neighbours	-10433
▁optomistic	-10434
▁possession	-10435
▁recruiting	-10436
▁silverfish	-10437
▁techniques	-10438
▁threatened	-10439
▁werewolves	-10440
▁battlefield	-10441
▁combination	-10442
▁disgraceful	-10443
▁educational	-10444
▁established	-10445
▁potentially	-10446
▁precautions	-10447
▁traditional	-10448
▁breathtaking	-10449
▁chemotherapy	-10450
▁disconnected	-10451
▁unbelievably	-10452
▁disconnecting	-10453
▁encouragement	-10454
▁grandchildren	-10455
▁claustrophobic	-10456
▁qualifications	-10457
▁recommendation	-10458
▁confrontational	-10459
▁recommendations	-10460
$$	-10461
-2	-10462
.)	-10463
10	-10464
15	-10465
2.	-10466
5,	-10467
80	-10468
bi	-10469
dc	-10470
hi	-10471
lb	-10472
oa	-10473
yr	-10474
▁\	-10475
!!.	-10476
?!!	-10477
ala	-10478
bey	-10479
caa	-10480
cam	-10481
dis	-10482
ffs	-10483
gne	-10484
hal	-10485
hem	-10486
iht	-10487
inc	-10488
inf	-10489
lah	-10490
mog	-10491
pit	-10492
pro	-10493
ptu	-10494
ril	-10495
tha	-10496
too	-10497
uce	-10498
uel	-10499
ugs	-10500
urt	-10501
win	-10502
wow	-10503
zel	-10504
▁3?	-10505
▁jk	-10506
▁mv	-10507
▁oi	-10508
▁rc	-10509
▁ta	-10510
▁tn	-10511
▁um	-10512
!!!"	-10513
,,,,	-10514
,400	-10515
????	-10516
abil	-10517
ados	-10518
alth	-10519
arre	-10520
aste	-10521
baby	-10522
bbin	-10523
bbly	-10524
bone	-10525
coin	-10526
eler	-10527
fing	-10528
gran	-10529
hawi	-10530
idal	-10531
iddy	-10532
iing	-10533
iner	-10534
ipop	-10535
ippi	-10536
lead	-10537
llas	-10538
lore	-10539
mbag	-10540
mped	-10541
pack	-10542
ping	-10543
reci	-10544
rian	-10545
rrow	-10546
seen	-10547
star	-10548
this	-10549
uade	-10550
uals	-10551
umer	-10552
umps	-10553
uted	-10554
wife	-10555
▁$30	-10556
▁$80	-10557
▁1.5	-10558
▁11.	-10559
▁150	-10560
▁40.	-10561
▁92!	-10562
▁ait	-10563
▁dak	-10564
▁dps	-10565
▁dvd	-10566
▁eut	-10567
▁fid	-10568
▁hoo	-10569
▁irr	-10570
▁jul	-10571
▁len	-10572
▁mba	-10573
▁mrs	-10574
▁nig	-10575
▁org	-10576
▁pau	-10577
▁phd	-10578
▁pir	-10579
▁pto	-10580
▁ree	-10581
▁ron	-10582
▁sap	-10583
▁sip	-10584
▁sly	-10585
▁tad	-10586
▁ths	-10587
▁tof	-10588
▁ube	-10589
▁wee	-10590
▁yah	-10591
,000.	-10592
ained	-10593
allel	-10594
arded	-10595
books	-10596
clear	-10597
eving	-10598
guard	-10599
harge	-10600
iance	-10601
icial	-10602
icorn	-10603
isine	-10604
itive	-10605
moved	-10606
ocaly	-10607
oline	-10608
onard	-10609
ooter	-10610
opath	-10611
orial	-10612
ouser	-10613
overs	-10614
owner	-10615
rapes	-10616
reens	-10617
sites	-10618
thood	-10619
times	-10620
urbed	-10621
vette	-10622
virus	-10623
▁$10.	-10624
▁$20,	-10625
▁$250	-10626
▁1995	-10627
▁2006	-10628
▁acdc	-10629
▁anth	-10630
▁bead	-10631
▁bees	-10632
▁belg	-10633
▁bold	-10634
▁brow	-10635
▁cate	-10636
▁cler	-10637
▁cola	-10638
▁crib	-10639
▁dach	-10640
▁daug	-10641
▁dime	-10642
▁enro	-10643
▁eric	-10644
▁gene	-10645
▁gigs	-10646
▁gret	-10647
▁grrr	-10648
▁halo	-10649
▁khak	-10650
▁leaf	-10651
▁loll	-10652
▁lone	-10653
▁lsat	-10654
▁mans	-10655
▁mars	-10656
▁maze	-10657
▁ncaa	-10658
▁olds	-10659
▁parm	-10660
▁pess	-10661
▁phil	-10662
▁pitt	-10663
▁pome	-10664
▁psat	-10665
▁ptsd	-10666
▁quad	-10667
▁reck	-10668
▁reel	-10669
▁rite	-10670
▁seiz	-10671
▁sled	-10672
▁spur	-10673
▁stam	-10674
▁tort	-10675
▁tres	-10676
▁unde	-10677
abilia	-10678
athize	-10679
button	-10680
elphia	-10681
hahaha	-10682
handed	-10683
iently	-10684
iladas	-10685
ilical	-10686
lahoma	-10687
liness	-10688
mogram	-10689
ontane	-10690
oodles	-10691
oscopy	-10692
others	-10693
romptu	-10694
rupted	-10695
unless	-10696
velope	-10697
▁$2500	-10698
▁1,000	-10699
▁2004.	-10700
▁abhor	-10701
▁accom	-10702
▁ahold	-10703
▁amaze	-10704
▁ashes	-10705
▁assau	-10706
▁beast	-10707
▁blush	-10708
▁brian	-10709
▁camry	-10710
▁choke	-10711
▁claws	-10712
▁combo	-10713
▁conce	-10714
▁cords	-10715
▁dents	-10716
▁dived	-10717
▁doozy	-10718
▁dwell	-10719
▁egged	-10720
▁elvis	-10721
▁energ	-10722
▁erect	-10723
▁escal	-10724
▁exped	-10725
▁facts	-10726
▁feeds	-10727
▁fiber	-10728
▁furby	-10729
▁genes	-10730
▁giddy	-10731
▁greyh	-10732
▁indig	-10733
▁insom	-10734
▁jonas	-10735
▁khawi	-10736
▁layer	-10737
▁leaps	-10738
▁legit	-10739
▁lobby	-10740
▁loops	-10741
▁maths	-10742
▁moist	-10743
▁nicke	-10744
▁overt	-10745
▁parad	-10746
▁piled	-10747
▁pooed	-10748
▁realt	-10749
▁revis	-10750
▁rider	-10751
▁rival	-10752
▁romeo	-10753
▁rusty	-10754
▁saint	-10755
▁sappy	-10756
▁scuba	-10757
▁sedan	-10758
▁shall	-10759
▁sheer	-10760
▁shell	-10761
▁shore	-10762
▁skull	-10763
▁snows	-10764
▁sonic	-10765
▁squat	-10766
▁stair	-10767
▁steel	-10768
▁stone	-10769
▁sweep	-10770
▁tehre	-10771
▁timer	-10772
▁timid	-10773
▁towed	-10774
▁unfin	-10775
▁unfor	-10776
▁unlim	-10777
▁unnot	-10778
▁views	-10779
▁wowza	-10780
▁youll	-10781
.......	-10782
appreci	-10783
granate	-10784
husband	-10785
icament	-10786
igerent	-10787
itating	-10788
lorella	-10789
ologist	-10790
thought	-10791
ulation	-10792
urities	-10793
vention	-10794
▁$8,400	-10795
▁aiming	-10796
▁aisles	-10797
▁angels	-10798
▁biolog	-10799
▁boomer	-10800
▁bugger	-10801
▁builds	-10802
▁candle	-10803
▁chanel	-10804
▁chilly	-10805
▁chunky	-10806
▁cliche	-10807
▁costly	-10808
▁curfew	-10809
▁curled	-10810
▁demise	-10811
▁euthan	-10812
▁exceed	-10813
▁fences	-10814
▁fender	-10815
▁flaked	-10816
▁floods	-10817
▁fungus	-10818
▁grapes	-10819
▁guided	-10820
▁gutted	-10821
▁hammer	-10822
▁hustle	-10823
▁inlaws	-10824
▁intric	-10825
▁jordan	-10826
▁juices	-10827
▁juliet	-10828
▁knives	-10829
▁layoff	-10830
▁learns	-10831
▁linear	-10832
▁mailed	-10833
▁maroon	-10834
▁massac	-10835
▁midway	-10836
▁misses	-10837
▁muster	-10838
▁napkin	-10839
▁nascar	-10840
▁nicely	-10841
▁orient	-10842
▁outage	-10843
▁outing	-10844
▁paraly	-10845
▁passer	-10846
▁payoff	-10847
▁peanut	-10848
▁philad	-10849
▁psycho	-10850
▁puking	-10851
▁rabies	-10852
▁rapids	-10853
▁rating	-10854
▁rattle	-10855
▁region	-10856
▁relied	-10857
▁remark	-10858
▁rights	-10859
▁salads	-10860
▁salted	-10861
▁senses	-10862
▁shreds	-10863
▁shrink	-10864
▁skates	-10865
▁speaks	-10866
▁speeds	-10867
▁squash	-10868
▁stands	-10869
▁stored	-10870
▁strive	-10871
▁stroll	-10872
▁subaru	-10873
▁tagged	-10874
▁taller	-10875
▁tapped	-10876
▁tiring	-10877
▁tought	-10878
▁tourne	-10879
▁tracks	-10880
▁traits	-10881
▁typing	-10882
▁untill	-10883
▁verify	-10884
▁versus	-10885
▁victim	-10886
▁volcan	-10887
▁weeknd	-10888
!!!!!!!!	-10889
ocalypse	-10890
ometrist	-10891
▁$50,000	-10892
▁admired	-10893
▁arrives	-10894
▁awfully	-10895
▁backups	-10896
▁balling	-10897
▁beleive	-10898
▁bitcoin	-10899
▁bizarre	-10900
▁boating	-10901
▁booklet	-10902
▁bounced	-10903
▁bouquet	-10904
▁bragged	-10905
▁brisket	-10906
▁buckets	-10907
▁buffets	-10908
▁carpets	-10909
▁centers	-10910
▁climbed	-10911
▁clubbin	-10912
▁colored	-10913
▁cracker	-10914
▁critter	-10915
▁cuisine	-10916
▁dissape	-10917
▁doubles	-10918
▁drained	-10919
▁dumbest	-10920
▁eclipse	-10921
▁edition	-10922
▁exhilar	-10923
▁existed	-10924
▁fallout	-10925
▁fastest	-10926
▁fiances	-10927
▁filming	-10928
▁genuine	-10929
▁gunshot	-10930
▁hateful	-10931
▁heating	-10932
▁hurtful	-10933
▁insured	-10934
▁intrigu	-10935
▁involve	-10936
▁jackson	-10937
▁janitor	-10938
▁ketosis	-10939
▁lasting	-10940
▁legally	-10941
▁leonard	-10942
▁licking	-10943
▁markers	-10944
▁meowing	-10945
▁mislead	-10946
▁overdra	-10947
▁oysters	-10948
▁peering	-10949
▁persist	-10950
▁posters	-10951
▁potluck	-10952
▁promote	-10953
▁rangers	-10954
▁reacted	-10955
▁retreat	-10956
▁rubbish	-10957
▁russian	-10958
▁scooter	-10959
▁screens	-10960
▁scumbag	-10961
▁shipped	-10962
▁skydive	-10963
▁slacker	-10964
▁spinach	-10965
▁squared	-10966
▁strateg	-10967
▁surgeon	-10968
▁touring	-10969
▁trimmed	-10970
▁trouser	-10971
▁unicorn	-10972
▁unloved	-10973
▁utility	-10974
▁vividly	-10975
▁weirdly	-10976
▁zombies	-10977
abilities	-10978
including	-10979
▁actively	-10980
▁advocate	-10981
▁alarming	-10982
▁allowing	-10983
▁artistic	-10984
▁breakins	-10985
▁budgeted	-10986
▁certific	-10987
▁cheapest	-10988
▁communic	-10989
▁corvette	-10990
▁crackers	-10991
▁currency	-10992
▁debating	-10993
▁diamonds	-10994
▁dominate	-10995
▁downhill	-10996
▁drawings	-10997
▁elephant	-10998
▁emailing	-10999
▁endeavor	-11000
▁fabulous	-11001
▁flipping	-11002
▁focusing	-11003
▁freezing	-11004
▁frighten	-11005
▁graphics	-11006
▁grieving	-11007
▁hardship	-11008
▁infested	-11009
▁kickball	-11010
▁layering	-11011
▁lollipop	-11012
▁machines	-11013
▁managing	-11014
▁motorist	-11015
▁obsessed	-11016
▁oklahoma	-11017
▁pancakes	-11018
▁parallel	-11019
▁persuade	-11020
▁reaching	-11021
▁reckless	-11022
▁roosters	-11023
▁routines	-11024
▁scottish	-11025
▁separate	-11026
▁sessions	-11027
▁shouldve	-11028
▁shrieked	-11029
▁shutters	-11030
▁spontane	-11031
▁stinking	-11032
▁stocking	-11033
▁subjects	-11034
▁themself	-11035
▁toughest	-11036
▁tropical	-11037
▁uncommon	-11038
▁universe	-11039
▁urinated	-11040
▁websites	-11041
▁according	-11042
▁adulthood	-11043
▁alternate	-11044
▁argentina	-11045
▁arguments	-11046
▁athletics	-11047
▁authentic	-11048
▁backpacks	-11049
▁champions	-11050
▁charities	-11051
▁chlorella	-11052
▁completly	-11053
▁crosswalk	-11054
▁defensive	-11055
▁estranged	-11056
▁freelance	-11057
▁gossiping	-11058
▁gradually	-11059
▁ignorance	-11060
▁imagining	-11061
▁immediate	-11062
▁impromptu	-11063
▁locations	-11064
▁mammogram	-11065
▁nauseated	-11066
▁practical	-11067
▁rainstorm	-11068
▁repairman	-11069
▁reputable	-11070
▁seperated	-11071
▁southeast	-11072
▁standards	-11073
▁strengths	-11074
▁susprised	-11075
▁sweatshop	-11076
▁throwback	-11077
▁travelled	-11078
▁unlimited	-11079
▁unpacking	-11080
▁upgrading	-11081
▁virtually	-11082
▁welcoming	-11083
▁worthless	-11084
▁accidently	-11085
▁antibiotic	-11086
▁apocalypse	-11087
▁attempting	-11088
▁beneficial	-11089
▁biological	-11090
▁cancelling	-11091
▁categories	-11092
▁collapsing	-11093
▁conditions	-11094
▁consistent	-11095
▁continuing	-11096
▁courageous	-11097
▁deployment	-11098
▁discussion	-11099
▁earthquake	-11100
▁enchiladas	-11101
▁explaining	-11102
▁guaranteed	-11103
▁headlights	-11104
▁infections	-11105
▁invitation	-11106
▁irrational	-11107
▁judgmental	-11108
▁landscaper	-11109
▁moderation	-11110
▁powerpoint	-11111
▁professors	-11112
▁purchasing	-11113
▁settlement	-11114
▁unfinished	-11115
▁yourselves	-11116
▁beautifully	-11117
▁belligerent	-11118
▁colonoscopy	-11119
▁commendable	-11120
▁confidently	-11121
▁disappeared	-11122
▁disciplined	-11123
▁encouraging	-11124
▁indigestion	-11125
▁individuals	-11126
▁maintaining	-11127
▁medications	-11128
▁memorabilia	-11129
▁optometrist	-11130
▁overworking	-11131
▁pomegranate	-11132
▁predicament	-11133
▁preferences	-11134
▁quarterback	-11135
▁socializing	-11136
▁territorial	-11137
▁traumatized	-11138
▁trepidation	-11139
▁aggressively	-11140
▁appointments	-11141
▁apprehension	-11142
▁competitions	-11143
▁dissapointed	-11144
▁entertaining	-11145
▁exhilarating	-11146
▁experiencing	-11147
▁heartwarming	-11148
▁insecurities	-11149
▁perspectives	-11150
▁philadelphia	-11151
▁scholarships	-11152
▁accomplishing	-11153
▁complications	-11154
▁qualification	-11155
▁sentimentally	-11156
▁significantly	-11157
▁unfortunatley	-11158
!>	-11159
!@	-11160
.\	-11161
1,	-11162
^_	-11163
aa	-11164
ev	-11165
hr	-11166
iy	-11167
wi	-11168
yl	-11169
!".	-11170
^_^	-11171
aay	-11172
akj	-11173
ati	-11174
bal	-11175
bir	-11176
buy	-11177
cho	-11178
cko	-11179
cul	-11180
ell	-11181
ene	-11182
enn	-11183
era	-11184
erd	-11185
ete	-11186
fan	-11187
fth	-11188
hog	-11189
hun	-11190
iar	-11191
iat	-11192
may	-11193
ola	-11194
oxi	-11195
riz	-11196
umb	-11197
umn	-11198
upt	-11199
vig	-11200
yyy	-11201
zer	-11202
▁$7	-11203
▁1,	-11204
▁32	-11205
▁48	-11206
▁8,	-11207
▁bc	-11208
▁cc	-11209
▁jb	-11210
▁jr	-11211
▁ni	-11212
▁pp	-11213
▁rs	-11214
▁tx	-11215
alty	-11216
azed	-11217
cong	-11218
cont	-11219
dder	-11220
ddit	-11221
dles	-11222
eded	-11223
ener	-11224
enly	-11225
esom	-11226
eted	-11227
etos	-11228
food	-11229
good	-11230
icit	-11231
ince	-11232
inet	-11233
iscu	-11234
mith	-11235
naly	-11236
ndae	-11237
ogen	-11238
ogne	-11239
only	-11240
oors	-11241
oove	-11242
ouri	-11243
rust	-11244
sell	-11245
soft	-11246
ssss	-11247
sual	-11248
teen	-11249
tion	-11250
wash	-11251
wood	-11252
zing	-11253
▁$60	-11254
▁$65	-11255
▁10%	-11256
▁15,	-11257
▁160	-11258
▁180	-11259
▁2.5	-11260
▁21,	-11261
▁250	-11262
▁35.	-11263
▁64.	-11264
▁^_^	-11265
▁ark	-11266
▁bry	-11267
▁caf	-11268
▁chr	-11269
▁cps	-11270
▁dat	-11271
▁dew	-11272
▁diy	-11273
▁duh	-11274
▁edm	-11275
▁eek	-11276
▁fow	-11277
▁gab	-11278
▁gel	-11279
▁gul	-11280
▁hae	-11281
▁icy	-11282
▁ire	-11283
▁lst	-11284
▁mcl	-11285
▁mit	-11286
▁mph	-11287
▁rit	-11288
▁sis	-11289
▁sod	-11290
▁sug	-11291
▁tee	-11292
▁vey	-11293
▁via	-11294
▁vig	-11295
▁wao	-11296
▁wim	-11297
▁wri	-11298
▁wrx	-11299
?!?!?	-11300
acent	-11301
acier	-11302
adian	-11303
after	-11304
ality	-11305
birth	-11306
chand	-11307
comed	-11308
cribe	-11309
ensor	-11310
erted	-11311
fting	-11312
ghbor	-11313
heard	-11314
igion	-11315
ilipp	-11316
joyed	-11317
llion	-11318
lying	-11319
maybe	-11320
mento	-11321
money	-11322
mouth	-11323
ocked	-11324
ouldn	-11325
racha	-11326
rants	-11327
reats	-11328
rence	-11329
ricty	-11330
▁$150	-11331
▁$50.	-11332
▁1968	-11333
▁2...	-11334
▁2020	-11335
▁4000	-11336
▁acid	-11337
▁amen	-11338
▁ariz	-11339
▁bits	-11340
▁bour	-11341
▁bron	-11342
▁bury	-11343
▁bush	-11344
▁cobb	-11345
▁cows	-11346
▁cred	-11347
▁curi	-11348
▁deaf	-11349
▁dial	-11350
▁dogg	-11351
▁dunk	-11352
▁enab	-11353
▁exes	-11354
▁fess	-11355
▁fied	-11356
▁fron	-11357
▁glue	-11358
▁gods	-11359
▁grac	-11360
▁irks	-11361
▁irre	-11362
▁isle	-11363
▁knox	-11364
▁lash	-11365
▁lasy	-11366
▁laun	-11367
▁leak	-11368
▁lect	-11369
▁liek	-11370
▁lime	-11371
▁lyft	-11372
▁maid	-11373
▁makj	-11374
▁mant	-11375
▁mayo	-11376
▁meme	-11377
▁mmmm	-11378
▁naps	-11379
▁peck	-11380
▁peep	-11381
▁pony	-11382
▁pour	-11383
▁puck	-11384
▁quar	-11385
▁sack	-11386
▁scal	-11387
▁seam	-11388
▁shee	-11389
▁skis	-11390
▁sped	-11391
▁stre	-11392
▁stut	-11393
▁tant	-11394
▁tari	-11395
▁thsi	-11396
▁tone	-11397
▁tyke	-11398
▁uggh	-11399
▁walt	-11400
▁warn	-11401
▁whew	-11402
anking	-11403
arison	-11404
ffeine	-11405
forter	-11406
laties	-11407
nessee	-11408
olving	-11409
ormous	-11410
ounced	-11411
parent	-11412
person	-11413
ruptcy	-11414
ugging	-11415
usions	-11416
▁$100.	-11417
▁$200.	-11418
▁aging	-11419
▁ahhhh	-11420
▁aloud	-11421
▁ambit	-11422
▁brady	-11423
▁brick	-11424
▁buyer	-11425
▁carre	-11426
▁catal	-11427
▁chevy	-11428
▁comfy	-11429
▁doggo	-11430
▁donut	-11431
▁dorms	-11432
▁drone	-11433
▁dumbf	-11434
▁eerie	-11435
▁ethic	-11436
▁fifth	-11437
▁filip	-11438
▁fills	-11439
▁flake	-11440
▁flare	-11441
▁flour	-11442
▁fryer	-11443
▁funky	-11444
▁gecko	-11445
▁germs	-11446
▁goose	-11447
▁greta	-11448
▁gunna	-11449
▁hence	-11450
▁hides	-11451
▁hills	-11452
▁hinds	-11453
▁impul	-11454
▁jeeps	-11455
▁jitsu	-11456
▁kevin	-11457
▁matty	-11458
▁monit	-11459
▁moron	-11460
▁multi	-11461
▁navig	-11462
▁oblig	-11463
▁outer	-11464
▁overc	-11465
▁pairs	-11466
▁pools	-11467
▁proof	-11468
▁pushy	-11469
▁pyram	-11470
▁queue	-11471
▁recip	-11472
▁repet	-11473
▁restu	-11474
▁risen	-11475
▁rodeo	-11476
▁ropes	-11477
▁rowdy	-11478
▁saver	-11479
▁scarf	-11480
▁sells	-11481
▁slimy	-11482
▁smelt	-11483
▁spice	-11484
▁spree	-11485
▁strap	-11486
▁sworn	-11487
▁unpro	-11488
▁versa	-11489
▁veter	-11490
▁vinci	-11491
▁weary	-11492
▁whose	-11493
▁winds	-11494
▁wraps	-11495
abolism	-11496
ativity	-11497
chester	-11498
cipline	-11499
issippi	-11500
iveness	-11501
lasting	-11502
owingly	-11503
partner	-11504
racting	-11505
resting	-11506
tension	-11507
▁afloat	-11508
▁airbnb	-11509
▁aretha	-11510
▁arrest	-11511
▁aswell	-11512
▁autumn	-11513
▁awesom	-11514
▁awwwww	-11515
▁bacter	-11516
▁baught	-11517
▁benign	-11518
▁biloxi	-11519
▁bleach	-11520
▁bombed	-11521
▁bowels	-11522
▁cables	-11523
▁callie	-11524
▁catast	-11525
▁cheats	-11526
▁clever	-11527
▁compre	-11528
▁corona	-11529
▁cougar	-11530
▁courts	-11531
▁creams	-11532
▁dakota	-11533
▁dangit	-11534
▁denver	-11535
▁dodged	-11536
▁drains	-11537
▁dreamt	-11538
▁drunks	-11539
▁filter	-11540
▁firend	-11541
▁flyers	-11542
▁formal	-11543
▁foward	-11544
▁fulfil	-11545
▁glazed	-11546
▁hacked	-11547
▁hamlet	-11548
▁hazard	-11549
▁holder	-11550
▁hunter	-11551
▁imagin	-11552
▁kindly	-11553
▁length	-11554
▁liquid	-11555
▁lowest	-11556
▁manure	-11557
▁method	-11558
▁mixing	-11559
▁mustve	-11560
▁nabbed	-11561
▁needle	-11562
▁organs	-11563
▁panera	-11564
▁parake	-11565
▁plumme	-11566
▁possib	-11567
▁prince	-11568
▁rammed	-11569
▁reacts	-11570
▁recite	-11571
▁reconc	-11572
▁reddit	-11573
▁rekind	-11574
▁restor	-11575
▁scheme	-11576
▁sequel	-11577
▁sevice	-11578
▁shiver	-11579
▁shovel	-11580
▁sirens	-11581
▁sprint	-11582
▁steals	-11583
▁sundae	-11584
▁tasked	-11585
▁trusts	-11586
▁underp	-11587
▁unpack	-11588
▁verbal	-11589
▁warmed	-11590
▁zoomed	-11591
priately	-11592
reakable	-11593
reditary	-11594
whelming	-11595
▁alerted	-11596
▁anthony	-11597
▁arizona	-11598
▁bananas	-11599
▁beeping	-11600
▁boogers	-11601
▁borther	-11602
▁bourbon	-11603
▁bullies	-11604
▁buttons	-11605
▁cheetos	-11606
▁collage	-11607
▁cologne	-11608
▁convert	-11609
▁cookout	-11610
▁couldve	-11611
▁coyotes	-11612
▁cruelty	-11613
▁decides	-11614
▁desires	-11615
▁devious	-11616
▁discont	-11617
▁dissect	-11618
▁dumping	-11619
▁embrace	-11620
▁exhibit	-11621
▁finnaly	-11622
▁forcing	-11623
▁fullest	-11624
▁funnier	-11625
▁generic	-11626
▁glacier	-11627
▁gorcery	-11628
▁grandad	-11629
▁gulible	-11630
▁hostile	-11631
▁hottest	-11632
▁indoors	-11633
▁instill	-11634
▁invites	-11635
▁ireland	-11636
▁johnson	-11637
▁jordans	-11638
▁letdown	-11639
▁limited	-11640
▁macbook	-11641
▁madness	-11642
▁majored	-11643
▁makjing	-11644
▁manages	-11645
▁middles	-11646
▁mummies	-11647
▁panicky	-11648
▁pharmac	-11649
▁philipp	-11650
▁plagiar	-11651
▁podcast	-11652
▁possums	-11653
▁pranked	-11654
▁predict	-11655
▁preview	-11656
▁primary	-11657
▁produce	-11658
▁profile	-11659
▁punches	-11660
▁rabbits	-11661
▁recreat	-11662
▁restart	-11663
▁rethink	-11664
▁reverse	-11665
▁rounded	-11666
▁russell	-11667
▁sandals	-11668
▁smeared	-11669
▁species	-11670
▁stunned	-11671
▁sweater	-11672
▁swelled	-11673
▁tanning	-11674
▁testify	-11675
▁trashed	-11676
▁trolley	-11677
▁tutored	-11678
▁vending	-11679
▁village	-11680
▁violent	-11681
▁weekday	-11682
▁whisked	-11683
▁woohooo	-11684
boyfriend	-11685
placeable	-11686
▁accommod	-11687
▁accuracy	-11688
▁antiques	-11689
▁believes	-11690
▁blushing	-11691
▁bouquets	-11692
▁caffeine	-11693
▁canadian	-11694
▁chomping	-11695
▁clarinet	-11696
▁clueless	-11697
▁colleges	-11698
▁contacts	-11699
▁covering	-11700
▁crickets	-11701
▁cuddling	-11702
▁defended	-11703
▁designed	-11704
▁disowned	-11705
▁embarass	-11706
▁enrolled	-11707
▁envelope	-11708
▁geometry	-11709
▁grooming	-11710
▁hardwork	-11711
▁hawaiian	-11712
▁horrific	-11713
▁ignorant	-11714
▁immature	-11715
▁improper	-11716
▁insomnia	-11717
▁insulted	-11718
▁lectures	-11719
▁lifeless	-11720
▁makeover	-11721
▁merchand	-11722
▁missouri	-11723
▁mistreat	-11724
▁obedient	-11725
▁officers	-11726
▁ornament	-11727
▁paradise	-11728
▁pitchers	-11729
▁pointing	-11730
▁politely	-11731
▁prompted	-11732
▁quarters	-11733
▁regional	-11734
▁religion	-11735
▁reunions	-11736
▁russians	-11737
▁shipment	-11738
▁slapping	-11739
▁smartest	-11740
▁smashing	-11741
▁smoother	-11742
▁snapchat	-11743
▁socially	-11744
▁sporting	-11745
▁sriracha	-11746
▁starfish	-11747
▁supports	-11748
▁swerving	-11749
▁sympathy	-11750
▁throught	-11751
▁tommorow	-11752
▁trillion	-11753
▁trimming	-11754
▁ubereats	-11755
▁watering	-11756
▁werewolf	-11757
▁workload	-11758
discipline	-11759
▁ambitious	-11760
▁assaulted	-11761
▁bachelors	-11762
▁betraying	-11763
▁bluegrass	-11764
▁comforter	-11765
▁competent	-11766
▁confidant	-11767
▁confusing	-11768
▁cupboards	-11769
▁described	-11770
▁detective	-11771
▁determine	-11772
▁disrupted	-11773
▁doctorate	-11774
▁elephants	-11775
▁essential	-11776
▁exploring	-11777
▁fashioned	-11778
▁fiedelity	-11779
▁foreigner	-11780
▁fulfilled	-11781
▁harassing	-11782
▁hindsight	-11783
▁illegally	-11784
▁isolating	-11785
▁landscape	-11786
▁languages	-11787
▁locksmith	-11788
▁luxurious	-11789
▁managment	-11790
▁metallica	-11791
▁miserably	-11792
▁obsessive	-11793
▁overjoyed	-11794
▁paintings	-11795
▁privilege	-11796
▁proceeded	-11797
▁programme	-11798
▁reassured	-11799
▁releasing	-11800
▁renovated	-11801
▁reporting	-11802
▁resentful	-11803
▁residents	-11804
▁resilient	-11805
▁schooling	-11806
▁secondary	-11807
▁seniority	-11808
▁surviving	-11809
▁suspected	-11810
▁tennessee	-11811
▁umbilical	-11812
▁underdogs	-11813
▁unusually	-11814
▁weinstein	-11815
▁wreckless	-11816
▁wrestling	-11817
▁wriggling	-11818
▁advantages	-11819
▁attraction	-11820
▁bankruptcy	-11821
▁bestfriend	-11822
▁betterhalf	-11823
▁calculator	-11824
▁catfishing	-11825
▁causlaties	-11826
▁charitable	-11827
▁childbirth	-11828
▁comparison	-11829
▁concerning	-11830
▁conclusion	-11831
▁convention	-11832
▁developers	-11833
▁electrical	-11834
▁electricty	-11835
▁engagement	-11836
▁fellowship	-11837
▁foreclosed	-11838
▁greatgrand	-11839
▁hereditary	-11840
▁liberating	-11841
▁literature	-11842
▁manchester	-11843
▁mechanical	-11844
▁metabolism	-11845
▁percentage	-11846
▁perfection	-11847
▁preference	-11848
▁priorities	-11849
▁protecting	-11850
▁resolution	-11851
▁respecting	-11852
▁responding	-11853
▁rewatching	-11854
▁separation	-11855
▁statements	-11856
▁underwater	-11857
▁association	-11858
▁comfortably	-11859
▁dumbfounded	-11860
▁fascinating	-11861
▁forthcoming	-11862
▁interaction	-11863
▁intimidated	-11864
▁kindergaren	-11865
▁mississippi	-11866
▁overheating	-11867
▁overindulge	-11868
▁parachuting	-11869
▁philippines	-11870
▁promotional	-11871
▁surrounding	-11872
▁technicians	-11873
▁temptations	-11874
▁unbreakable	-11875
▁unknowingly	-11876
▁alternatives	-11877
▁confirmation	-11878
▁hypertension	-11879
▁infomercials	-11880
▁intersection	-11881
▁intervention	-11882
▁overreacting	-11883
▁performances	-11884
▁snowboarding	-11885
▁subscription	-11886
▁appropriately	-11887
▁companionship	-11888
▁confrontation	-11889
▁granddaughter	-11890
▁inconvenience	-11891
▁underwhelming	-11892
▁disappointment	-11893
▁procrastinated	-11894
▁professionally	-11895
'.	-11896
.5	-11897
3.	-11898
:)	-11899
>?	-11900
?)	-11901
dk	-11902
hd	-11903
po	-11904
rt	-11905
▁[	-11906
▁£	-11907
..?	-11908
:00	-11909
:30	-11910
aat	-11911
aid	-11912
ara	-11913
axy	-11914
bel	-11915
bri	-11916
cod	-11917
cot	-11918
cur	-11919
dka	-11920
had	-11921
ico	-11922
iny	-11923
kyo	-11924
mnn	-11925
mot	-11926
mph	-11927
mud	-11928
mus	-11929
nab	-11930
net	-11931
olo	-11932
orc	-11933
paw	-11934
rak	-11935
roc	-11936
ros	-11937
sef	-11938
set	-11939
xed	-11940
▁2!	-11941
▁4-	-11942
▁41	-11943
▁5$	-11944
▁5-	-11945
▁8!	-11946
▁85	-11947
▁aj	-11948
▁au	-11949
▁eu	-11950
▁ft	-11951
▁mn	-11952
▁mw	-11953
▁pg	-11954
▁uu	-11955
▁vp	-11956
▁vs	-11957
▁ww	-11958
▁ym	-11959
▁yr	-11960
..."	-11961
affe	-11962
agon	-11963
ails	-11964
aoke	-11965
ardv	-11966
azzy	-11967
bber	-11968
beth	-11969
camp	-11970
case	-11971
ccol	-11972
chro	-11973
ders	-11974
edar	-11975
eeee	-11976
enix	-11977
erer	-11978
ethe	-11979
feld	-11980
fill	-11981
grow	-11982
hant	-11983
haul	-11984
hend	-11985
hern	-11986
iays	-11987
iked	-11988
imed	-11989
inth	-11990
inum	-11991
isal	-11992
lets	-11993
lock	-11994
mbun	-11995
muda	-11996
odor	-11997
omed	-11998
ople	-11999
othe	-12000
outs	-12001
poke	-12002
rint	-12003
rise	-12004
seye	-12005
shot	-12006
tdon	-12007
thod	-12008
uall	-12009
uers	-12010
upus	-12011
veal	-12012
weed	-12013
went	-12014
wide	-12015
wild	-12016
writ	-12017
xpin	-12018
▁110	-12019
▁13-	-12020
▁14,	-12021
▁20'	-12022
▁24.	-12023
▁360	-12024
▁550	-12025
▁90%	-12026
▁93,	-12027
▁ads	-12028
▁aha	-12029
▁ahd	-12030
▁aol	-12031
▁beg	-12032
▁bin	-12033
▁bux	-12034
▁doe	-12035
▁dot	-12036
▁dui	-12037
▁esl	-12038
▁fem	-12039
▁fof	-12040
▁ged	-12041
▁hay	-12042
▁hoe	-12043
▁ink	-12044
▁jil	-12045
▁jim	-12046
▁kat	-12047
▁lax	-12048
▁lee	-12049
▁lug	-12050
▁lut	-12051
▁mes	-12052
▁mvp	-12053
▁nba	-12054
▁obt	-12055
▁ost	-12056
▁pam	-12057
▁ppl	-12058
▁rin	-12059
▁rpg	-12060
▁sci	-12061
▁shu	-12062
▁snu	-12063
▁syl	-12064
▁tak	-12065
▁thi	-12066
▁tht	-12067
▁thy	-12068
▁tis	-12069
▁upf	-12070
▁wig	-12071
▁wiz	-12072
▁yak	-12073
▁yen	-12074
acket	-12075
anded	-12076
anola	-12077
archy	-12078
avers	-12079
aying	-12080
balls	-12081
becue	-12082
borgh	-12083
built	-12084
bumps	-12085
ccoli	-12086
celer	-12087
chise	-12088
ctual	-12089
cuted	-12090
eness	-12091
erall	-12092
garia	-12093
gered	-12094
ghhhh	-12095
ghter	-12096
habit	-12097
hahah	-12098
ickle	-12099
iffed	-12100
ilant	-12101
imism	-12102
iocre	-12103
ittle	-12104
kered	-12105
metic	-12106
mosis	-12107
motiv	-12108
nered	-12109
ocado	-12110
oning	-12111
orney	-12112
paste	-12113
psons	-12114
quite	-12115
raunt	-12116
rdain	-12117
shund	-12118
tains	-12119
thign	-12120
tling	-12121
tress	-12122
udged	-12123
urant	-12124
urgis	-12125
urned	-12126
urous	-12127
utton	-12128
words	-12129
▁$40.	-12130
▁1980	-12131
▁1990	-12132
▁1998	-12133
▁40%.	-12134
▁acqu	-12135
▁agon	-12136
▁alps	-12137
▁anew	-12138
▁arth	-12139
▁bait	-12140
▁bale	-12141
▁barb	-12142
▁bass	-12143
▁bing	-12144
▁buck	-12145
▁chor	-12146
▁conj	-12147
▁crut	-12148
▁dean	-12149
▁deed	-12150
▁deff	-12151
▁dict	-12152
▁diem	-12153
▁dism	-12154
▁doub	-12155
▁dred	-12156
▁espe	-12157
▁fixt	-12158
▁flav	-12159
▁fren	-12160
▁gour	-12161
▁hail	-12162
▁hiss	-12163
▁hoop	-12164
▁hows	-12165
▁hula	-12166
▁iced	-12167
▁impe	-12168
▁ipod	-12169
▁lira	-12170
▁loop	-12171
▁lsot	-12172
▁lust	-12173
▁mace	-12174
▁merc	-12175
▁merg	-12176
▁musk	-12177
▁nite	-12178
▁nons	-12179
▁nurt	-12180
▁odor	-12181
▁pans	-12182
▁papa	-12183
▁penn	-12184
▁pert	-12185
▁pest	-12186
▁pipe	-12187
▁pond	-12188
▁pork	-12189
▁prev	-12190
▁reno	-12191
▁righ	-12192
▁roam	-12193
▁sein	-12194
▁stil	-12195
▁sunk	-12196
▁toad	-12197
▁tofu	-12198
▁twig	-12199
▁unav	-12200
▁vets	-12201
▁vibe	-12202
▁vine	-12203
▁waht	-12204
▁weel	-12205
▁whim	-12206
▁whys	-12207
▁wiht	-12208
▁wist	-12209
▁woow	-12210
▁writ	-12211
abouts	-12212
agious	-12213
alking	-12214
amedic	-12215
bledon	-12216
briety	-12217
calico	-12218
cathed	-12219
chitis	-12220
ckeyes	-12221
codile	-12222
couldn	-12223
ctious	-12224
endous	-12225
ervice	-12226
hammer	-12227
handle	-12228
hanger	-12229
having	-12230
icable	-12231
iments	-12232
lement	-12233
living	-12234
modore	-12235
mostat	-12236
ontist	-12237
orcist	-12238
pering	-12239
please	-12240
raisal	-12241
rative	-12242
ressor	-12243
roller	-12244
rowing	-12245
uation	-12246
ulging	-12247
writer	-12248
ything	-12249
▁$100!	-12250
▁$300.	-12251
▁2017.	-12252
▁6,000	-12253
▁aardv	-12254
▁accum	-12255
▁alost	-12256
▁bambi	-12257
▁barks	-12258
▁barri	-12259
▁batch	-12260
▁biscu	-12261
▁brace	-12262
▁caved	-12263
▁cedar	-12264
▁chaos	-12265
▁choir	-12266
▁chuck	-12267
▁chute	-12268
▁corey	-12269
▁crate	-12270
▁crisp	-12271
▁david	-12272
▁demon	-12273
▁dudes	-12274
▁eater	-12275
▁emott	-12276
▁filth	-12277
▁firms	-12278
▁flick	-12279
▁flunk	-12280
▁gates	-12281
▁glory	-12282
▁gnats	-12283
▁gnome	-12284
▁grail	-12285
▁gramm	-12286
▁greek	-12287
▁haunt	-12288
▁hefty	-12289
▁horns	-12290
▁invas	-12291
▁jelly	-12292
▁knots	-12293
▁kraft	-12294
▁leaky	-12295
▁lemur	-12296
▁lolol	-12297
▁lucks	-12298
▁lumps	-12299
▁lupus	-12300
▁matri	-12301
▁meows	-12302
▁motto	-12303
▁negot	-12304
▁nutri	-12305
▁oppon	-12306
▁pears	-12307
▁perks	-12308
▁pouch	-12309
▁racks	-12310
▁raped	-12311
▁rated	-12312
▁remot	-12313
▁roger	-12314
▁samoa	-12315
▁santa	-12316
▁scamp	-12317
▁seeds	-12318
▁setup	-12319
▁sleek	-12320
▁sling	-12321
▁slurs	-12322
▁slyly	-12323
▁snaps	-12324
▁spine	-12325
▁stamp	-12326
▁stash	-12327
▁steve	-12328
▁stiff	-12329
▁suite	-12330
▁sword	-12331
▁tease	-12332
▁tithe	-12333
▁tokyo	-12334
▁trait	-12335
▁tramp	-12336
▁twist	-12337
▁uhmnn	-12338
▁unatt	-12339
▁usage	-12340
▁uuugg	-12341
▁venue	-12342
▁visor	-12343
▁vodka	-12344
▁vouch	-12345
▁waits	-12346
▁wheer	-12347
▁youve	-12348
berries	-12349
burgers	-12350
chalant	-12351
chroach	-12352
control	-12353
enished	-12354
haunted	-12355
hearted	-12356
holders	-12357
issions	-12358
istated	-12359
ortable	-12360
oughter	-12361
painted	-12362
picking	-12363
urgical	-12364
▁accuse	-12365
▁advert	-12366
▁angsty	-12367
▁appeal	-12368
▁append	-12369
▁ashame	-12370
▁babytv	-12371
▁banged	-12372
▁barley	-12373
▁barnes	-12374
▁behalf	-12375
▁bender	-12376
▁bewild	-12377
▁broked	-12378
▁bugged	-12379
▁bumbed	-12380
▁carson	-12381
▁cooker	-12382
▁coupon	-12383
▁delays	-12384
▁deodor	-12385
▁device	-12386
▁dishon	-12387
▁exempt	-12388
▁favors	-12389
▁ferret	-12390
▁festiv	-12391
▁fickle	-12392
▁framed	-12393
▁gadget	-12394
▁galaxy	-12395
▁harden	-12396
▁hernia	-12397
▁hitmen	-12398
▁incase	-12399
▁injure	-12400
▁intell	-12401
▁jilted	-12402
▁junker	-12403
▁khakis	-12404
▁kisses	-12405
▁latter	-12406
▁leader	-12407
▁leaner	-12408
▁legend	-12409
▁lemons	-12410
▁lethal	-12411
▁limits	-12412
▁lucked	-12413
▁lumber	-12414
▁luther	-12415
▁luxury	-12416
▁madman	-12417
▁magnum	-12418
▁maxima	-12419
▁miffed	-12420
▁morals	-12421
▁orthod	-12422
▁otters	-12423
▁patted	-12424
▁peaked	-12425
▁peeled	-12426
▁proven	-12427
▁pupper	-12428
▁rambun	-12429
▁repain	-12430
▁reveal	-12431
▁rewind	-12432
▁riders	-12433
▁ritual	-12434
▁rotted	-12435
▁ruxpin	-12436
▁scenes	-12437
▁seated	-12438
▁shaker	-12439
▁shapes	-12440
▁shares	-12441
▁sheets	-12442
▁sitter	-12443
▁situps	-12444
▁slowed	-12445
▁smokes	-12446
▁smores	-12447
▁sorrow	-12448
▁stefan	-12449
▁strain	-12450
▁tables	-12451
▁tahiti	-12452
▁tender	-12453
▁themes	-12454
▁touchy	-12455
▁tumors	-12456
▁uncond	-12457
▁unease	-12458
▁violin	-12459
▁whoops	-12460
▁wobbly	-12461
▁womens	-12462
▁woohoo	-12463
▁worlds	-12464
▁wounds	-12465
▁writes	-12466
borghini	-12467
breaking	-12468
checkout	-12469
congrats	-12470
etheless	-12471
izations	-12472
ologetic	-12473
▁acceler	-12474
▁actualy	-12475
▁adviser	-12476
▁anarchy	-12477
▁apricot	-12478
▁avocado	-12479
▁bandage	-12480
▁belgium	-12481
▁bermuda	-12482
▁beyonce	-12483
▁blinker	-12484
▁blurted	-12485
▁boarded	-12486
▁bracket	-12487
▁bravery	-12488
▁brewing	-12489
▁cancell	-12490
▁carrier	-12491
▁carries	-12492
▁casinos	-12493
▁catches	-12494
▁chapter	-12495
▁chilled	-12496
▁chopper	-12497
▁combine	-12498
▁confirm	-12499
▁costing	-12500
▁creates	-12501
▁cricket	-12502
▁cuddles	-12503
▁daghter	-12504
▁darling	-12505
▁deathly	-12506
▁desired	-12507
▁devices	-12508
▁dredged	-12509
▁element	-12510
▁enabler	-12511
▁endless	-12512
▁exposed	-12513
▁factors	-12514
▁fatigue	-12515
▁favorit	-12516
▁federer	-12517
▁felling	-12518
▁females	-12519
▁festive	-12520
▁fighter	-12521
▁fingern	-12522
▁firends	-12523
▁flashed	-12524
▁folders	-12525
▁footbal	-12526
▁footing	-12527
▁forming	-12528
▁fulfill	-12529
▁gagging	-12530
▁giraffe	-12531
▁glutton	-12532
▁goodies	-12533
▁gourmet	-12534
▁granola	-12535
▁hailing	-12536
▁hangers	-12537
▁harvest	-12538
▁induced	-12539
▁ingrown	-12540
▁insists	-12541
▁inspire	-12542
▁insulin	-12543
▁karaoke	-12544
▁lacking	-12545
▁loaning	-12546
▁longing	-12547
▁macbeth	-12548
▁mangled	-12549
▁maximum	-12550
▁mclaren	-12551
▁millenn	-12552
▁minding	-12553
▁minimal	-12554
▁minimum	-12555
▁ongoing	-12556
▁osmosis	-12557
▁pancake	-12558
▁panties	-12559
▁panting	-12560
▁phoenix	-12561
▁pianist	-12562
▁pigeons	-12563
▁pillows	-12564
▁planets	-12565
▁playful	-12566
▁pointer	-12567
▁polaris	-12568
▁quarant	-12569
▁reallll	-12570
▁rebuild	-12571
▁redoing	-12572
▁relaxes	-12573
▁reserve	-12574
▁ringing	-12575
▁rivalry	-12576
▁roasted	-12577
▁roomies	-12578
▁scented	-12579
▁schoole	-12580
▁scorers	-12581
▁seduced	-12582
▁shallow	-12583
▁shooter	-12584
▁siiting	-12585
▁snoring	-12586
▁stollen	-12587
▁sturgis	-12588
▁substit	-12589
▁sunrise	-12590
▁surveys	-12591
▁sweetie	-12592
▁tantrum	-12593
▁targets	-12594
▁tariffs	-12595
▁teaches	-12596
▁teasing	-12597
▁terrify	-12598
▁thinner	-12599
▁thyroid	-12600
▁tilting	-12601
▁toilets	-12602
▁tomrrow	-12603
▁tougher	-12604
▁trigger	-12605
▁trivial	-12606
▁truffle	-12607
▁trumpet	-12608
▁tshirts	-12609
▁unmotiv	-12610
▁untrust	-12611
▁upfront	-12612
▁vacuums	-12613
▁villain	-12614
▁virtual	-12615
▁visitor	-12616
▁walkers	-12617
▁weapons	-12618
▁weaving	-12619
▁winners	-12620
▁winters	-12621
▁wistful	-12622
▁wonders	-12623
▁wrestle	-12624
antically	-12625
cribeable	-12626
istically	-12627
marketers	-12628
▁aardvark	-12629
▁adderall	-12630
▁afterall	-12631
▁aluminum	-12632
▁attorney	-12633
▁attracts	-12634
▁barbecue	-12635
▁bargains	-12636
▁blasting	-12637
▁bourdain	-12638
▁broccoli	-12639
▁brutally	-12640
▁buckeyes	-12641
▁bulgaria	-12642
▁bullseye	-12643
▁cabinets	-12644
▁category	-12645
▁champion	-12646
▁cheerios	-12647
▁churning	-12648
▁collapse	-12649
▁combined	-12650
▁comforts	-12651
▁contents	-12652
▁cosmetic	-12653
▁cramming	-12654
▁creation	-12655
▁curtains	-12656
▁delicate	-12657
▁dislikes	-12658
▁district	-12659
▁doubtful	-12660
▁doughter	-12661
▁dreadful	-12662
▁drooling	-12663
▁druggies	-12664
▁elements	-12665
▁engineer	-12666
▁enormous	-12667
▁exorcist	-12668
▁expelled	-12669
▁exposure	-12670
▁filipino	-12671
▁flashing	-12672
▁franklin	-12673
▁gathered	-12674
▁goodwill	-12675
▁gunpoint	-12676
▁handyman	-12677
▁holdiays	-12678
▁homeroom	-12679
▁intimate	-12680
▁involves	-12681
▁irritate	-12682
▁laughter	-12683
▁lifelong	-12684
▁listener	-12685
▁luxuries	-12686
▁magazine	-12687
▁mattress	-12688
▁mediocre	-12689
▁minister	-12690
▁moldable	-12691
▁momentos	-12692
▁movement	-12693
▁nonsense	-12694
▁opposing	-12695
▁organize	-12696
▁outdated	-12697
▁outgoing	-12698
▁outright	-12699
▁overcame	-12700
▁passport	-12701
▁planting	-12702
▁plumbers	-12703
▁podcasts	-12704
▁poptarts	-12705
▁pounding	-12706
▁prefered	-12707
▁proceeds	-12708
▁pyramids	-12709
▁realised	-12710
▁recevied	-12711
▁recorded	-12712
▁reptiles	-12713
▁reviewed	-12714
▁salaries	-12715
▁scarface	-12716
▁seinfeld	-12717
▁shutting	-12718
▁simpsons	-12719
▁situated	-12720
▁snapping	-12721
▁sobriety	-12722
▁spraying	-12723
▁strangle	-12724
▁stripper	-12725
▁striving	-12726
▁sunlight	-12727
▁superman	-12728
▁suspense	-12729
▁taunting	-12730
▁tendency	-12731
▁thanking	-12732
▁thriving	-12733
▁tortilla	-12734
▁trailers	-12735
▁tuesdays	-12736
▁twinkies	-12737
▁underest	-12738
▁unusally	-12739
▁warnings	-12740
▁accessory	-12741
▁admirable	-12742
▁airplanes	-12743
▁apathetic	-12744
▁appraisal	-12745
▁attentive	-12746
▁autograph	-12747
▁boyfirend	-12748
▁broadcast	-12749
▁childcare	-12750
▁citations	-12751
▁cochroach	-12752
▁collapsed	-12753
▁commodore	-12754
▁conjuring	-12755
▁consuming	-12756
▁crocodile	-12757
▁dachshund	-12758
▁defintely	-12759
▁discarded	-12760
▁discounts	-12761
▁discourse	-12762
▁disturbed	-12763
▁endurance	-12764
▁energency	-12765
▁enlighten	-12766
▁evaluated	-12767
▁exhorting	-12768
▁flashback	-12769
▁franchise	-12770
▁graduates	-12771
▁gratitude	-12772
▁groundhog	-12773
▁guitarist	-12774
▁headstart	-12775
▁hillbilly	-12776
▁homeowner	-12777
▁horseback	-12778
▁housemate	-12779
▁immensely	-12780
▁inclusive	-12781
▁instagram	-12782
▁intervene	-12783
▁littering	-12784
▁lucrative	-12785
▁memorized	-12786
▁movements	-12787
▁nastiness	-12788
▁nurturing	-12789
▁observing	-12790
▁overdrawn	-12791
▁paramedic	-12792
▁partnered	-12793
▁positives	-12794
▁probation	-12795
▁quarterly	-12796
▁recording	-12797
▁refunding	-12798
▁reminding	-12799
▁repulsive	-12800
▁resetting	-12801
▁restraunt	-12802
▁resturant	-12803
▁saddening	-12804
▁scribbles	-12805
▁semesters	-12806
▁sickening	-12807
▁slingshot	-12808
▁stairwell	-12809
▁stupidity	-12810
▁togethers	-12811
▁touchdown	-12812
▁treadmill	-12813
▁treasures	-12814
▁unnoticed	-12815
▁unscathed	-12816
▁wimbledon	-12817
appreciated	-12818
▁admissions	-12819
▁afterwords	-12820
▁alzheimers	-12821
▁appearance	-12822
▁assistance	-12823
▁bewildered	-12824
▁boomerangs	-12825
▁bothersome	-12826
▁bronchitis	-12827
▁collectors	-12828
▁comforting	-12829
▁compressor	-12830
▁consultant	-12831
▁contagious	-12832
▁contribute	-12833
▁controller	-12834
▁definitley	-12835
▁despicable	-12836
▁devistated	-12837
▁distressed	-12838
▁emottional	-12839
▁foundation	-12840
▁goosebumps	-12841
▁horrendous	-12842
▁importance	-12843
▁misspelled	-12844
▁mortifying	-12845
▁motivating	-12846
▁nonchalant	-12847
▁peacefully	-12848
▁pharmacist	-12849
▁precaution	-12850
▁promotions	-12851
▁reminisced	-12852
▁restuarant	-12853
▁sacrificed	-12854
▁scrambling	-12855
▁sleepovers	-12856
▁strategies	-12857
▁suspension	-12858
▁swallowing	-12859
▁thermostat	-12860
▁toothpaste	-12861
▁tournement	-12862
▁trampoline	-12863
▁uuuggghhhh	-12864
▁wednesdays	-12865
▁worthwhile	-12866
▁adventurous	-12867
▁billionaire	-12868
▁cheerleader	-12869
▁chirurgical	-12870
▁coincidence	-12871
▁communities	-12872
▁confortable	-12873
▁cooperative	-12874
▁incorrectly	-12875
▁lamborghini	-12876
▁merchandise	-12877
▁nonetheless	-12878
▁orientation	-12879
▁passholders	-12880
▁permanently	-12881
▁pessimistic	-12882
▁quarantined	-12883
▁replenished	-12884
▁responsibly	-12885
▁suggestions	-12886
▁sweethearts	-12887
▁uncondition	-12888
▁unmotivated	-12889
▁vacationing	-12890
▁whereabouts	-12891
▁consolidated	-12892
▁faithfulness	-12893
▁frusterating	-12894
▁homeschooled	-12895
▁intelligence	-12896
▁narcissistic	-12897
▁orthodontist	-12898
▁prescription	-12899
▁productivity	-12900
▁rambunctious	-12901
▁reconnecting	-12902
▁respectively	-12903
▁tremendously	-12904
▁volunteering	-12905
▁announcements	-12906
▁cheeseburgers	-12907
▁communicating	-12908
▁inspirational	-12909
▁nervewracking	-12910
▁notifications	-12911
▁organizations	-12912
▁participating	-12913
▁telemarketers	-12914
▁untrustworthy	-12915
▁groundbreaking	-12916
▁malfunctioning	-12917
▁undescribeable	-12918
▁responsibilites	-12919
▁thunderstorming	-12920
'?	-12921
+.	-12922
.?	-12923
/?	-12924
2,	-12925
70	-12926
8!	-12927
bh	-12928
cs	-12929
fy	-12930
gi	-12931
gm	-12932
ko	-12933
li	-12934
lr	-12935
mc	-12936
nh	-12937
nu	-12938
oz	-12939
wl	-12940
wo	-12941
yh	-12942
yo	-12943
yt	-12944
zu	-12945
▁=	-12946
.5!	-12947
/10	-12948
/20	-12949
12.	-12950
150	-12951
500	-12952
acs	-12953
agl	-12954
ann	-12955
bet	-12956
cet	-12957
cio	-12958
cou	-12959
dry	-12960
eee	-12961
efa	-12962
eks	-12963
eny	-12964
esc	-12965
esy	-12966
eze	-12967
fam	-12968
ika	-12969
irh	-12970
irk	-12971
lee	-12972
low	-12973
mia	-12974
mos	-12975
nor	-12976
ogy	-12977
oli	-12978
osy	-12979
pat	-12980
poc	-12981
raw	-12982
rid	-12983
rog	-12984
sat	-12985
sir	-12986
sne	-12987
str	-12988
suc	-12989
tan	-12990
tim	-12991
voe	-12992
wre	-12993
▁4,	-12994
▁5%	-12995
▁5?	-12996
▁6-	-12997
▁6.	-12998
▁76	-12999
▁94	-13000
▁hd	-13001
▁hs	-13002
▁iy	-13003
▁ja	-13004
▁nc	-13005
▁og	-13006
▁op	-13007
▁pb	-13008
▁ul	-13009
▁ws	-13010
achu	-13011
acts	-13012
adas	-13013
agen	-13014
agle	-13015
anka	-13016
arit	-13017
aver	-13018
bing	-13019
burg	-13020
cker	-13021
cure	-13022
dens	-13023
eaks	-13024
eces	-13025
elty	-13026
enth	-13027
erto	-13028
etic	-13029
eyed	-13030
fold	-13031
ggin	-13032
greg	-13033
harl	-13034
hero	-13035
iage	-13036
ibar	-13037
iber	-13038
ieth	-13039
ifes	-13040
ifty	-13041
iful	-13042
imsy	-13043
iong	-13044
isco	-13045
kies	-13046
kini	-13047
kish	-13048
lave	-13049
ledg	-13050
lons	-13051
mean	-13052
mies	-13053
nake	-13054
name	-13055
nger	-13056
note	-13057
oked	-13058
olis	-13059
olot	-13060
oman	-13061
oops	-13062
oray	-13063
prim	-13064
quil	-13065
rael	-13066
rape	-13067
rent	-13068
reth	-13069
ride	-13070
risk	-13071
rors	-13072
ruci	-13073
seys	-13074
spit	-13075
tied	-13076
uant	-13077
ugal	-13078
ulpt	-13079
uous	-13080
utes	-13081
viol	-13082
vped	-13083
yson	-13084
zens	-13085
▁#2.	-13086
▁$5.	-13087
▁10,	-13088
▁101	-13089
▁140	-13090
▁2-3	-13091
▁20-	-13092
▁33!	-13093
▁55.	-13094
▁60'	-13095
▁70"	-13096
▁75"	-13097
▁99%	-13098
▁;-)	-13099
▁amt	-13100
▁aro	-13101
▁ave	-13102
▁baw	-13103
▁bbc	-13104
▁cel	-13105
▁cnn	-13106
▁cob	-13107
▁cus	-13108
▁dez	-13109
▁doa	-13110
▁dub	-13111
▁dwi	-13112
▁emt	-13113
▁era	-13114
▁eup	-13115
▁fis	-13116
▁foo	-13117
▁hoa	-13118
▁hob	-13119
▁icu	-13120
▁imo	-13121
▁itl	-13122
▁lul	-13123
▁mau	-13124
▁mlb	-13125
▁nit	-13126
▁noo	-13127
▁nyc	-13128
▁pbs	-13129
▁ppv	-13130
▁pub	-13131
▁roy	-13132
▁sca	-13133
▁scr	-13134
▁som	-13135
▁tbh	-13136
▁uch	-13137
▁voc	-13138
▁wil	-13139
▁~15	-13140
again	-13141
agger	-13142
ailed	-13143
anned	-13144
anson	-13145
arden	-13146
ardly	-13147
ashes	-13148
asper	-13149
atchi	-13150
aurus	-13151
based	-13152
bound	-13153
ckety	-13154
class	-13155
cough	-13156
cream	-13157
dryer	-13158
endor	-13159
eting	-13160
fires	-13161
forth	-13162
ggers	-13163
hance	-13164
happy	-13165
hemat	-13166
henon	-13167
iency	-13168
ierra	-13169
ifest	-13170
ilize	-13171
ilton	-13172
inked	-13173
inued	-13174
lived	-13175
luded	-13176
makes	-13177
mpled	-13178
oodle	-13179
peare	-13180
pract	-13181
rames	-13182
ricul	-13183
shing	-13184
sling	-13185
spect	-13186
spend	-13187
sured	-13188
teous	-13189
thest	-13190
tingu	-13191
truck	-13192
umber	-13193
until	-13194
yhose	-13195
▁1800	-13196
▁24.7	-13197
▁40..	-13198
▁50%.	-13199
▁aces	-13200
▁argh	-13201
▁aura	-13202
▁bash	-13203
▁beep	-13204
▁bong	-13205
▁boon	-13206
▁bums	-13207
▁caan	-13208
▁cano	-13209
▁catf	-13210
▁chal	-13211
▁cher	-13212
▁clam	-13213
▁coca	-13214
▁coco	-13215
▁coke	-13216
▁cozy	-13217
▁cris	-13218
▁curl	-13219
▁cush	-13220
▁dand	-13221
▁dawn	-13222
▁dazz	-13223
▁denu	-13224
▁ding	-13225
▁dung	-13226
▁edgy	-13227
▁elab	-13228
▁embr	-13229
▁fend	-13230
▁feud	-13231
▁fork	-13232
▁fuss	-13233
▁gash	-13234
▁gong	-13235
▁gory	-13236
▁hind	-13237
▁hool	-13238
▁hrmm	-13239
▁hurl	-13240
▁inqu	-13241
▁jama	-13242
▁kern	-13243
▁laps	-13244
▁lvoe	-13245
▁mesh	-13246
▁mike	-13247
▁mofo	-13248
▁mour	-13249
▁mozz	-13250
▁noon	-13251
▁numb	-13252
▁nutr	-13253
▁obit	-13254
▁palm	-13255
▁pawn	-13256
▁peek	-13257
▁pees	-13258
▁perm	-13259
▁perp	-13260
▁pies	-13261
▁plun	-13262
▁poll	-13263
▁pont	-13264
▁quir	-13265
▁reds	-13266
▁rema	-13267
▁rico	-13268
▁rise	-13269
▁runt	-13270
▁ruth	-13271
▁sank	-13272
▁shou	-13273
▁skim	-13274
▁snuk	-13275
▁soak	-13276
▁soem	-13277
▁spun	-13278
▁swab	-13279
▁tabs	-13280
▁tale	-13281
▁tarp	-13282
▁tehn	-13283
▁tide	-13284
▁tile	-13285
▁uefa	-13286
▁uhhh	-13287
▁utah	-13288
▁vaca	-13289
▁vape	-13290
▁vari	-13291
▁vind	-13292
▁vint	-13293
▁visa	-13294
▁warp	-13295
▁whow	-13296
▁wirh	-13297
▁yoyo	-13298
▁zoom	-13299
actory	-13300
arried	-13301
called	-13302
castle	-13303
cation	-13304
cesful	-13305
cessed	-13306
cheted	-13307
ckered	-13308
dinate	-13309
elcome	-13310
esteem	-13311
eteria	-13312
ething	-13313
family	-13314
hattan	-13315
ictive	-13316
idious	-13317
irling	-13318
lifter	-13319
lining	-13320
lledge	-13321
olotls	-13322
ouette	-13323
people	-13324
rating	-13325
really	-13326
riages	-13327
sneeze	-13328
teenth	-13329
tennis	-13330
ueling	-13331
urizer	-13332
ursion	-13333
usband	-13334
violin	-13335
▁$1.5!	-13336
▁$1400	-13337
▁20/20	-13338
▁2011.	-13339
▁2016,	-13340
▁absor	-13341
▁ached	-13342
▁ahaha	-13343
▁amate	-13344
▁ammos	-13345
▁arrog	-13346
▁beybl	-13347
▁bitch	-13348
▁bough	-13349
▁bouts	-13350
▁brake	-13351
▁brawl	-13352
▁broom	-13353
▁buick	-13354
▁bumps	-13355
▁chemo	-13356
▁chore	-13357
▁chris	-13358
▁consu	-13359
▁cripp	-13360
▁crows	-13361
▁crumb	-13362
▁custo	-13363
▁darth	-13364
▁ddoor	-13365
▁depri	-13366
▁diead	-13367
▁disap	-13368
▁diver	-13369
▁dosen	-13370
▁dummy	-13371
▁dyson	-13372
▁effic	-13373
▁elder	-13374
▁elton	-13375
▁errat	-13376
▁erupt	-13377
▁fatty	-13378
▁fines	-13379
▁frown	-13380
▁furry	-13381
▁fussy	-13382
▁giver	-13383
▁hears	-13384
▁hmmmm	-13385
▁hones	-13386
▁hypoc	-13387
▁infat	-13388
▁jeeze	-13389
▁kills	-13390
▁kmart	-13391
▁lanka	-13392
▁laser	-13393
▁leafs	-13394
▁limbs	-13395
▁loner	-13396
▁lucio	-13397
▁maine	-13398
▁malls	-13399
▁manly	-13400
▁manus	-13401
▁mason	-13402
▁megan	-13403
▁merry	-13404
▁meter	-13405
▁motnh	-13406
▁muddy	-13407
▁mutts	-13408
▁nacho	-13409
▁ought	-13410
▁ounce	-13411
▁overl	-13412
▁pages	-13413
▁paras	-13414
▁peppy	-13415
▁peris	-13416
▁peron	-13417
▁perse	-13418
▁pikes	-13419
▁raven	-13420
▁raves	-13421
▁repar	-13422
▁roots	-13423
▁scams	-13424
▁scand	-13425
▁scree	-13426
▁sings	-13427
▁slots	-13428
▁spank	-13429
▁spilt	-13430
▁splat	-13431
▁spurs	-13432
▁stake	-13433
▁stank	-13434
▁steer	-13435
▁stool	-13436
▁strut	-13437
▁stung	-13438
▁swoop	-13439
▁swung	-13440
▁tamag	-13441
▁theon	-13442
▁timed	-13443
▁tipsy	-13444
▁toned	-13445
▁traff	-13446
▁tunes	-13447
▁tyson	-13448
▁uhaul	-13449
▁unann	-13450
▁uneth	-13451
▁unexc	-13452
▁unsuc	-13453
▁urges	-13454
▁vader	-13455
▁vital	-13456
▁vowed	-13457
▁waves	-13458
▁whine	-13459
▁whist	-13460
▁wives	-13461
▁wowed	-13462
▁yells	-13463
▁yucky	-13464
,000!!!	-13465
achable	-13466
ainable	-13467
anation	-13468
areness	-13469
cessful	-13470
cession	-13471
donalds	-13472
engthen	-13473
esteaks	-13474
harlika	-13475
illance	-13476
ingitis	-13477
isation	-13478
itively	-13479
itorium	-13480
oidable	-13481
protect	-13482
rencies	-13483
rolling	-13484
shivers	-13485
ulpture	-13486
ursions	-13487
ventful	-13488
visions	-13489
watched	-13490
▁......	-13491
▁absent	-13492
▁agents	-13493
▁alarms	-13494
▁alerts	-13495
▁anthem	-13496
▁argued	-13497
▁assure	-13498
▁awsome	-13499
▁bailed	-13500
▁banker	-13501
▁banned	-13502
▁barber	-13503
▁beagle	-13504
▁beaver	-13505
▁beenie	-13506
▁bikini	-13507
▁blanks	-13508
▁blinds	-13509
▁bobcat	-13510
▁bopped	-13511
▁braces	-13512
▁braver	-13513
▁breezy	-13514
▁broach	-13515
▁broker	-13516
▁brunch	-13517
▁bryant	-13518
▁casual	-13519
▁cavity	-13520
▁childs	-13521
▁cleats	-13522
▁clocks	-13523
▁colony	-13524
▁connor	-13525
▁crafts	-13526
▁curdle	-13527
▁darker	-13528
▁dearly	-13529
▁demean	-13530
▁demons	-13531
▁devour	-13532
▁disloy	-13533
▁dookey	-13534
▁doubts	-13535
▁dozens	-13536
▁editor	-13537
▁erased	-13538
▁euphor	-13539
▁extras	-13540
▁faeces	-13541
▁filing	-13542
▁finace	-13543
▁flimsy	-13544
▁flirts	-13545
▁flirty	-13546
▁fluids	-13547
▁folded	-13548
▁foodie	-13549
▁fooled	-13550
▁frames	-13551
▁friens	-13552
▁frugal	-13553
▁gareth	-13554
▁greets	-13555
▁hacker	-13556
▁haunts	-13557
▁healer	-13558
▁hearty	-13559
▁helper	-13560
▁histor	-13561
▁hitman	-13562
▁hooray	-13563
▁horrid	-13564
▁impose	-13565
▁incess	-13566
▁israel	-13567
▁issued	-13568
▁joyous	-13569
▁kiddie	-13570
▁knifes	-13571
▁leaned	-13572
▁linger	-13573
▁linked	-13574
▁locate	-13575
▁loking	-13576
▁madrid	-13577
▁manner	-13578
▁margar	-13579
▁mcgreg	-13580
▁models	-13581
▁morbid	-13582
▁nickel	-13583
▁notify	-13584
▁occass	-13585
▁overth	-13586
▁palpit	-13587
▁paragl	-13588
▁pedest	-13589
▁peeves	-13590
▁philly	-13591
▁pigeon	-13592
▁piling	-13593
▁pisses	-13594
▁poodle	-13595
▁portra	-13596
▁praise	-13597
▁preach	-13598
▁prizes	-13599
▁psyche	-13600
▁puerto	-13601
▁raptor	-13602
▁refill	-13603
▁refine	-13604
▁regain	-13605
▁reprim	-13606
▁reread	-13607
▁rinsed	-13608
▁rocked	-13609
▁rsvped	-13610
▁sacked	-13611
▁saints	-13612
▁savers	-13613
▁shores	-13614
▁shucks	-13615
▁sierra	-13616
▁sketch	-13617
▁skunks	-13618
▁smudge	-13619
▁snatch	-13620
▁splint	-13621
▁spoons	-13622
▁sprays	-13623
▁sprout	-13624
▁squeal	-13625
▁squish	-13626
▁stages	-13627
▁subtle	-13628
▁sunset	-13629
▁taurus	-13630
▁taxing	-13631
▁tended	-13632
▁tensed	-13633
▁thigns	-13634
▁tinier	-13635
▁tithes	-13636
▁tossed	-13637
▁traded	-13638
▁trails	-13639
▁trolls	-13640
▁truely	-13641
▁turnes	-13642
▁ugghhh	-13643
▁undert	-13644
▁upbeat	-13645
▁usualy	-13646
▁vendor	-13647
▁visual	-13648
▁wander	-13649
▁wealth	-13650
▁weaned	-13651
▁weeked	-13652
▁yessir	-13653
▁yogurt	-13654
▁youtub	-13655
........	-13656
complete	-13657
ertation	-13658
estering	-13659
hematics	-13660
isionous	-13661
ledgable	-13662
ountered	-13663
practice	-13664
shingled	-13665
stitious	-13666
tlesnake	-13667
ventions	-13668
▁absence	-13669
▁adamant	-13670
▁airsoft	-13671
▁allover	-13672
▁amounts	-13673
▁anyones	-13674
▁arrange	-13675
▁audited	-13676
▁balloon	-13677
▁battled	-13678
▁bedtime	-13679
▁belated	-13680
▁benning	-13681
▁blaming	-13682
▁blanked	-13683
▁blinked	-13684
▁bloated	-13685
▁bookbag	-13686
▁branson	-13687
▁brownie	-13688
▁burglar	-13689
▁capture	-13690
▁careers	-13691
▁carport	-13692
▁charter	-13693
▁cheater	-13694
▁checkup	-13695
▁cheeses	-13696
▁chillax	-13697
▁coached	-13698
▁condesc	-13699
▁conduct	-13700
▁corners	-13701
▁council	-13702
▁cupcake	-13703
▁dashcam	-13704
▁deficit	-13705
▁deleted	-13706
▁designs	-13707
▁dinners	-13708
▁doodles	-13709
▁elected	-13710
▁emptied	-13711
▁enclave	-13712
▁enemies	-13713
▁enhance	-13714
▁excruci	-13715
▁extingu	-13716
▁flicked	-13717
▁flights	-13718
▁flushed	-13719
▁forgets	-13720
▁fridays	-13721
▁friggin	-13722
▁gadgets	-13723
▁ghostly	-13724
▁grosses	-13725
▁hahahah	-13726
▁hangout	-13727
▁harming	-13728
▁headset	-13729
▁heavens	-13730
▁hinders	-13731
▁homerun	-13732
▁hostess	-13733
▁huskies	-13734
▁inherit	-13735
▁jamaica	-13736
▁jerseys	-13737
▁joyride	-13738
▁kernels	-13739
▁kingdom	-13740
▁leaning	-13741
▁liberal	-13742
▁lowered	-13743
▁meetups	-13744
▁memento	-13745
▁mistook	-13746
▁mondays	-13747
▁napping	-13748
▁offices	-13749
▁onwards	-13750
▁outdone	-13751
▁panther	-13752
▁pantsed	-13753
▁passive	-13754
▁pierced	-13755
▁pinball	-13756
▁pirated	-13757
▁pitched	-13758
▁pitiful	-13759
▁plagued	-13760
▁pontoon	-13761
▁possess	-13762
▁postpon	-13763
▁premier	-13764
▁publish	-13765
▁pullups	-13766
▁pumping	-13767
▁puzzled	-13768
▁puzzles	-13769
▁railing	-13770
▁readily	-13771
▁releash	-13772
▁relying	-13773
▁renters	-13774
▁reports	-13775
▁reprint	-13776
▁retrace	-13777
▁rickety	-13778
▁rodents	-13779
▁rolling	-13780
▁samarit	-13781
▁scooper	-13782
▁scuffed	-13783
▁seasick	-13784
▁secured	-13785
▁seeking	-13786
▁sensual	-13787
▁servers	-13788
▁shocker	-13789
▁signals	-13790
▁slaving	-13791
▁sleeper	-13792
▁sorting	-13793
▁spanked	-13794
▁stamina	-13795
▁starter	-13796
▁stepmom	-13797
▁sticker	-13798
▁strikes	-13799
▁suicide	-13800
▁sunning	-13801
▁sunroom	-13802
▁takeout	-13803
▁tearful	-13804
▁thicker	-13805
▁tricked	-13806
▁turkish	-13807
▁tweaked	-13808
▁twinkie	-13809
▁unclear	-13810
▁viewing	-13811
▁vinegar	-13812
▁vintage	-13813
▁visting	-13814
▁vitamin	-13815
▁volcano	-13816
▁walkway	-13817
▁wealthy	-13818
▁weirdos	-13819
▁whiskey	-13820
▁wraking	-13821
▁abducted	-13822
▁agitated	-13823
▁arkansas	-13824
▁assigned	-13825
▁attempts	-13826
▁autistic	-13827
▁axolotls	-13828
▁backbone	-13829
▁bacteria	-13830
▁barbados	-13831
▁beginner	-13832
▁blatenly	-13833
▁bookcase	-13834
▁breather	-13835
▁browsing	-13836
▁carryout	-13837
▁cheering	-13838
▁colledge	-13839
▁contests	-13840
▁courtesy	-13841
▁creature	-13842
▁critical	-13843
▁cruising	-13844
▁cushions	-13845
▁daugther	-13846
▁deadlift	-13847
▁definite	-13848
▁denounce	-13849
▁designer	-13850
▁deterior	-13851
▁diabetis	-13852
▁diagnose	-13853
▁disclose	-13854
▁ditching	-13855
▁dolphins	-13856
▁domestic	-13857
▁download	-13858
▁draining	-13859
▁eventual	-13860
▁examiner	-13861
▁exhibits	-13862
▁figurine	-13863
▁fishbowl	-13864
▁flicking	-13865
▁fluently	-13866
▁frenetic	-13867
▁furthest	-13868
▁gestures	-13869
▁gluttony	-13870
▁grabbing	-13871
▁graceful	-13872
▁granddad	-13873
▁greeting	-13874
▁grueling	-13875
▁hamilton	-13876
▁highways	-13877
▁inclined	-13878
▁intercom	-13879
▁interior	-13880
▁lighting	-13881
▁luckiest	-13882
▁manifest	-13883
▁mattered	-13884
▁measures	-13885
▁momentum	-13886
▁neutered	-13887
▁nickname	-13888
▁nothings	-13889
▁obituary	-13890
▁opponent	-13891
▁outgrown	-13892
▁overbred	-13893
▁parakeet	-13894
▁phishing	-13895
▁pleasing	-13896
▁portions	-13897
▁powering	-13898
▁preacher	-13899
▁prepping	-13900
▁previews	-13901
▁princess	-13902
▁prisoner	-13903
▁publicly	-13904
▁radiator	-13905
▁reassure	-13906
▁receiver	-13907
▁recourse	-13908
▁redlight	-13909
▁registry	-13910
▁relation	-13911
▁relented	-13912
▁remotely	-13913
▁repaying	-13914
▁resented	-13915
▁retiring	-13916
▁retrieve	-13917
▁roomates	-13918
▁rustling	-13919
▁secluded	-13920
▁seizures	-13921
▁selfless	-13922
▁settings	-13923
▁shoplift	-13924
▁shotguns	-13925
▁shouting	-13926
▁sneakers	-13927
▁someting	-13928
▁sophmore	-13929
▁southern	-13930
▁spanking	-13931
▁spitting	-13932
▁splashed	-13933
▁springer	-13934
▁stalking	-13935
▁strongly	-13936
▁sweeping	-13937
▁tangiers	-13938
▁tensions	-13939
▁thirteen	-13940
▁tiresome	-13941
▁trampled	-13942
▁triplets	-13943
▁tripping	-13944
▁truthful	-13945
▁twirling	-13946
▁uncalled	-13947
▁unfairly	-13948
▁unfolded	-13949
▁unforget	-13950
▁unnerved	-13951
▁upgrades	-13952
▁uploaded	-13953
▁verbally	-13954
▁verbiage	-13955
▁veterans	-13956
▁vigilant	-13957
▁wallmart	-13958
▁waterboy	-13959
▁welcomed	-13960
▁wildfire	-13961
▁withhold	-13962
▁workshop	-13963
▁wrestled	-13964
thoughtful	-13965
▁$7,000!!!	-13966
▁abhorrent	-13967
▁addictive	-13968
▁agonizing	-13969
▁alzheimer	-13970
▁amazement	-13971
▁appliance	-13972
▁arrogance	-13973
▁authority	-13974
▁backstrap	-13975
▁betrayers	-13976
▁breakroom	-13977
▁budgeting	-13978
▁cafeteria	-13979
▁catastrop	-13980
▁catfished	-13981
▁collision	-13982
▁cooperate	-13983
▁courteous	-13984
▁cremation	-13985
▁criminals	-13986
▁criticism	-13987
▁crocheted	-13988
▁declining	-13989
▁definitly	-13990
▁denuclear	-13991
▁deodorant	-13992
▁dependent	-13993
▁desirable	-13994
▁disasters	-13995
▁discussed	-13996
▁disguised	-13997
▁dishonest	-13998
▁dissapear	-13999
▁donations	-14000
▁ducklings	-14001
▁elaborate	-14002
▁empathize	-14003
▁everywere	-14004
▁eveything	-14005
▁exchanged	-14006
▁excursion	-14007
▁exercised	-14008
▁exercises	-14009
▁exhusband	-14010
▁extorting	-14011
▁facebooks	-14012
▁fostering	-14013
▁hardships	-14014
▁headphone	-14015
▁heartbeat	-14016
▁insidious	-14017
▁insisting	-14018
▁instances	-14019
▁intensely	-14020
▁maddening	-14021
▁malicious	-14022
▁manhattan	-14023
▁marriages	-14024
▁matriarch	-14025
▁misfortun	-14026
▁mouthwash	-14027
▁moviepass	-14028
▁mushrooms	-14029
▁neverious	-14030
▁nevermind	-14031
▁nutrition	-14032
▁occurring	-14033
▁ornaments	-14034
▁overheard	-14035
▁overreact	-14036
▁pantyhose	-14037
▁parthenon	-14038
▁patiently	-14039
▁personnel	-14040
▁polishing	-14041
▁predicted	-14042
▁preferred	-14043
▁processed	-14044
▁recycling	-14045
▁registers	-14046
▁remainder	-14047
▁remarried	-14048
▁remodeled	-14049
▁responses	-14050
▁reviewing	-14051
▁sacrifice	-14052
▁saturated	-14053
▁screening	-14054
▁sculpture	-14055
▁silouette	-14056
▁sleepless	-14057
▁smoothies	-14058
▁sociopath	-14059
▁spiritual	-14060
▁splitting	-14061
▁stabilize	-14062
▁statewide	-14063
▁storybook	-14064
▁superhero	-14065
▁surprized	-14066
▁tailgates	-14067
▁telephone	-14068
▁tentacles	-14069
▁threating	-14070
▁treatable	-14071
▁twentieth	-14072
▁unethical	-14073
▁unplanned	-14074
▁unwelcome	-14075
▁variables	-14076
▁violently	-14077
▁accountant	-14078
▁auditioned	-14079
▁auditorium	-14080
▁boundaries	-14081
▁calculated	-14082
▁campground	-14083
▁challenged	-14084
▁commenting	-14085
▁commercial	-14086
▁compensate	-14087
▁concession	-14088
▁containing	-14089
▁contestant	-14090
▁copperhead	-14091
▁customized	-14092
▁dependable	-14093
▁doorhandle	-14094
▁enrollment	-14095
▁excursions	-14096
▁expedition	-14097
▁expression	-14098
▁financials	-14099
▁hahahahaha	-14100
▁immigrants	-14101
▁influences	-14102
▁infuriated	-14103
▁initiative	-14104
▁journalism	-14105
▁manuscript	-14106
▁meningitis	-14107
▁meticulous	-14108
▁microphone	-14109
▁monitoring	-14110
▁negativity	-14111
▁neglecting	-14112
▁networking	-14113
▁neutrality	-14114
▁occupation	-14115
▁occurrence	-14116
▁outpouring	-14117
▁parenthood	-14118
▁perishable	-14119
▁plagiarism	-14120
▁plummeting	-14121
▁poisionous	-14122
▁preventing	-14123
▁previously	-14124
▁progressed	-14125
▁qualifying	-14126
▁renovation	-14127
▁sandcastle	-14128
▁scientists	-14129
▁screeching	-14130
▁separately	-14131
▁steakhouse	-14132
▁supposedly	-14133
▁surrounded	-14134
▁tailgating	-14135
▁tamagatchi	-14136
▁underestim	-14137
▁undergoing	-14138
▁underlying	-14139
▁uneventful	-14140
▁unreliable	-14141
▁videogames	-14142
▁vindictive	-14143
▁accordingly	-14144
▁advancement	-14145
▁certificate	-14146
▁cliffhanger	-14147
▁competitors	-14148
▁conditional	-14149
▁continental	-14150
▁conventions	-14151
▁convertible	-14152
▁copperfield	-14153
▁countryside	-14154
▁devastation	-14155
▁elimination	-14156
▁encountered	-14157
▁essentially	-14158
▁examination	-14159
▁existential	-14160
▁explanation	-14161
▁forgiveness	-14162
▁functioning	-14163
▁graduations	-14164
▁incessantly	-14165
▁infatuation	-14166
▁intricately	-14167
▁investments	-14168
▁malpractice	-14169
▁mathematics	-14170
▁meaningless	-14171
▁millennials	-14172
▁moisturizer	-14173
▁motherboard	-14174
▁nervousness	-14175
▁outdoorsman	-14176
▁paragliding	-14177
▁parasailing	-14178
▁powerlifter	-14179
▁pregnancies	-14180
▁progressing	-14181
▁rattlesnake	-14182
▁reparations	-14183
▁residential	-14184
▁restoration	-14185
▁shakespeare	-14186
▁shoplifting	-14187
▁shorthanded	-14188
▁smartphones	-14189
▁televisions	-14190
▁transparent	-14191
▁unannounced	-14192
▁unavoidable	-14193
▁undercooked	-14194
▁willingness	-14195
▁wonderfully	-14196
▁approachable	-14197
▁carelessness	-14198
▁celebrations	-14199
▁cheesesteaks	-14200
▁discontinued	-14201
▁dissertation	-14202
▁distractions	-14203
▁excruciating	-14204
▁extinguisher	-14205
▁generational	-14206
▁hospitalized	-14207
▁interactions	-14208
▁kindergarden	-14209
▁knowledgable	-14210
▁organisation	-14211
▁overthinking	-14212
▁palpitations	-14213
▁powerlifting	-14214
▁repetitively	-14215
▁respectfully	-14216
▁satisfactory	-14217
▁strawberries	-14218
▁surveillance	-14219
▁transferring	-14220
▁unfortunatly	-14221
▁uninterested	-14222
▁unsuccessful	-14223
▁unthoughtful	-14224
▁accommodating	-14225
▁condescending	-14226
▁irreplaceable	-14227
▁possibilities	-14228
▁procrastinate	-14229
▁reconnectiong	-14230
▁superstitious	-14231
▁transitioning	-14232
▁weightlifting	-14233
▁coincidentally	-14234
▁representative	-14235
▁representatives	-14236
!'	-14237
";	-14238
%!	-14239
-.	-14240
.!	-14241
6?	-14242
@!	-14243
ao	-14244
kr	-14245
ni	-14246
uu	-14247
wh	-14248
~!	-14249
▁+	-14250
***	-14251
,,,	-14252
25.	-14253
60'	-14254
:-)	-14255
akh	-14256
aki	-14257
bek	-14258
bie	-14259
die	-14260
ede	-14261
erp	-14262
eye	-14263
ghe	-14264
ham	-14265
hif	-14266
hyd	-14267
idy	-14268
iev	-14269
iop	-14270
jam	-14271
job	-14272
kon	-14273
lts	-14274
lty	-14275
nin	-14276
nsa	-14277
oca	-14278
pac	-14279
sen	-14280
sep	-14281
sil	-14282
sss	-14283
uer	-14284
ugh	-14285
uld	-14286
wen	-14287
▁4?	-14288
▁89	-14289
▁:0	-14290
▁ak	-14291
▁df	-14292
▁dj	-14293
▁dy	-14294
▁md	-14295
▁oz	-14296
▁rh	-14297
▁ry	-14298
▁sd	-14299
mt	-14300
adv	-14301
ela	-14302
lay	-14303
rob	-14304
sad	-14305
sox	-14306
uke	-14307
zor	-14308
▁39	-14309
▁gh	-14310
▁sv	-14311
▁~3	-14312
,500	-14313
-60'	-14314
0000	-14315
0001	-14316
9/10	-14317
??!!	-14318
also	-14319
amps	-14320
anye	-14321
arby	-14322
asma	-14323
atme	-14324
aves	-14325
boli	-14326
bugs	-14327
celt	-14328
ckro	-14329
club	-14330
conf	-14331
core	-14332
cups	-14333
cuts	-14334
dent	-14335
dist	-14336
drop	-14337
eden	-14338
ente	-14339
eple	-14340
etly	-14341
eury	-14342
fake	-14343
fere	-14344
fila	-14345
hast	-14346
herd	-14347
hter	-14348
icul	-14349
idas	-14350
illo	-14351
inle	-14352
itre	-14353
ivot	-14354
kink	-14355
ldom	-14356
lest	-14357
logy	-14358
ltle	-14359
mmnn	-14360
ndle	-14361
nell	-14362
nown	-14363
oala	-14364
ooth	-14365
open	-14366
ophy	-14367
pone	-14368
pray	-14369
quen	-14370
rain	-14371
rost	-14372
semi	-14373
stan	-14374
take	-14375
tent	-14376
thst	-14377
ucky	-14378
uise	-14379
unes	-14380
vish	-14381
vous	-14382
xedo	-14383
ylit	-14384
yman	-14385
▁$$$	-14386
▁15-	-14387
▁16.	-14388
▁17.	-14389
▁185	-14390
▁19,	-14391
▁194	-14392
▁21.	-14393
▁225	-14394
▁23.	-14395
▁24-	-14396
▁28,	-14397
▁3-4	-14398
▁3-6	-14399
)!	-14400
cd	-14401
aro	-14402
aus	-14403
des	-14404
new	-14405
try	-14406
uch	-14407
urd	-14408
aque	-14409
aske	-14410
call	-14411
peed	-14412
sine	-14413
thng	-14414
▁10-	-14415
▁31.	-14416
▁315	-14417
▁46?	-14418
▁70.	-14419
▁911	-14420
▁abn	-14421
▁ape	-14422
▁ard	-14423
▁asc	-14424
▁aws	-14425
▁bio	-14426
▁bol	-14427
▁cmp	-14428
▁ect	-14429
▁egy	-14430
▁enf	-14431
▁esp	-14432
▁faj	-14433
▁fel	-14434
▁fen	-14435
▁fnd	-14436
▁frd	-14437
▁gfo	-14438
▁gop	-14439
▁hbu	-14440
▁hee	-14441
▁hou	-14442
▁jaw	-14443
▁jin	-14444
▁knw	-14445
▁mcn	-14446
▁mik	-14447
▁moo	-14448
▁mps	-14449
▁neo	-14450
▁noy	-14451
▁ofr	-14452
▁pga	-14453
▁pne	-14454
▁sao	-14455
▁sel	-14456
▁sid	-14457
▁sta	-14458
▁tet	-14459
▁uti	-14460
▁wen	-14461
▁xlr	-14462
▁zap	-14463
achus	-14464
agara	-14465
apego	-14466
aping	-14467
apred	-14468
aters	-14469
atomy	-14470
atoon	-14471
azakh	-14472
belie	-14473
beque	-14474
bleep	-14475
brake	-14476
calls	-14477
cards	-14478
cisco	-14479
culus	-14480
doesn	-14481
eered	-14482
elace	-14483
ennif	-14484
enses	-14485
erday	-14486
fresh	-14487
guire	-14488
ighed	-14489
ignon	-14490
ikiki	-14491
ildnt	-14492
imbur	-14493
initi	-14494
inois	-14495
inous	-14496
ipede	-14497
itely	-14498
iyaki	-14499
gro	-14500
amic	-14501
daay	-14502
ilda	-14503
ouln	-14504
rici	-14505
rina	-14506
▁65.	-14507
▁apr	-14508
▁bnb	-14509
▁nag	-14510
eston	-14511
grate	-14512
kinky	-14513
later	-14514
layer	-14515
lexes	-14516
limat	-14517
longs	-14518
meber	-14519
metto	-14520
model	-14521
msays	-14522
nabis	-14523
nacle	-14524
neost	-14525
nings	-14526
okers	-14527
ollen	-14528
orini	-14529
oryed	-14530
osion	-14531
ounth	-14532
rades	-14533
renov	-14534
rewed	-14535
riots	-14536
ritis	-14537
rosse	-14538
slide	-14539
small	-14540
somet	-14541
spray	-14542
sweet	-14543
their	-14544
today	-14545
track	-14546
umili	-14547
unbek	-14548
vania	-14549
vanna	-14550
vesty	-14551
wayne	-14552
wheel	-14553
woman	-14554
worms	-14555
▁$230	-14556
▁$50!	-14557
▁1/2.	-14558
▁110%	-14559
▁13..	-14560
▁1950	-14561
▁2005	-14562
▁25%,	-14563
▁335.	-14564
▁350,	-14565
▁360.	-14566
▁3:00	-14567
▁9:30	-14568
▁acne	-14569
▁acup	-14570
▁adap	-14571
▁adhd	-14572
▁afew	-14573
▁agao	-14574
▁agre	-14575
▁ahdn	-14576
▁aint	-14577
▁ajar	-14578
▁alse	-14579
▁amph	-14580
▁anay	-14581
▁beem	-14582
▁blah	-14583
[...]
